/**
  ******************************************************************************
  * @file    network_data_params.c
  * @author  AST Embedded Analytics Research Platform
  * @date    2026-02-16T03:46:29+0800
  * @brief   AI Tool Automatic Code Generator for Embedded NN computing
  ******************************************************************************
  * Copyright (c) 2026 STMicroelectronics.
  * All rights reserved.
  *
  * This software is licensed under terms that can be found in the LICENSE file
  * in the root directory of this software component.
  * If no LICENSE file comes with this software, it is provided AS-IS.
  ******************************************************************************
  */

#include "network_data_params.h"


/**  Activations Section  ****************************************************/
ai_handle g_network_activations_table[1 + 2] = {
  AI_HANDLE_PTR(AI_MAGIC_MARKER),
  AI_HANDLE_PTR(NULL),
  AI_HANDLE_PTR(AI_MAGIC_MARKER),
};




/**  Weights Section  ********************************************************/
AI_ALIGNED(32)
const ai_u64 s_network_weights_array_u64[27672] = {
  0xbb38972ebbab18f2U, 0x3b712887bb483fd9U, 0x3c3d71f4bc6a257cU, 0xbb94ab01bbc517a1U,
  0x3b87475dbbd566daU, 0x3b6ebaf3bb36e7ceU, 0xbbdbb7c5bbc47455U, 0xba8450353ac859a6U,
  0x3bba4d73bc093e0aU, 0x3b8ad79cbbc573faU, 0x3b273c493c842bf5U, 0x3c91bd893c07956aU,
  0x3bf6fafdbbc5798aU, 0x3b8dd97dbaeb72c9U, 0xbb6d5fc13bcc03beU, 0x3b9fa5c63beb152bU,
  0x3b9c98fc3b7e52bbU, 0xba79919f3bebc24cU, 0xbbabb00cbc84dca2U, 0xbb3b8aaabc0c18e2U,
  0xbbe41b8ebb69bdc0U, 0x3c1ed92abb156a78U, 0xbab29faf3aa724fbU, 0x3b0e2a31bacbd060U,
  0x3c4737b33c4ae830U, 0x3ab60af73bd255d2U, 0x3bc1329b3bb8cf95U, 0xbc2797ca3a5c352fU,
  0x3c4d56f2bb8270c1U, 0xbc127f8d3a16f2fbU, 0x3c0d069e3b63f04bU, 0xbc94d364bc3c00bbU,
  0x3b850c28bc0cbefaU, 0xbb9eb97bbbdd165aU, 0x3bd9fbc6bc6ff7e2U, 0x3ccbeaec3c802887U,
  0xbd3a3da6be606afaU, 0x3e7bfac43905d010U, 0x3e7bf078bd91e7d3U, 0xbe6f0f0b3e8c4149U,
  0xc00932b2bfbb9c6fU, 0x3e95d43a3fba4053U, 0xc000771a3f7ee00dU, 0x3fdd70a23eab77eaU,
  0xbec7f1303f17a2d3U, 0x3e3d913a3e77b72aU, 0xbf85d682bfdabc75U, 0x4038cf77c001879cU,
  0x3ef8dc693fd56e02U, 0x3f76f69fbf88555dU, 0x3f4ca9ff3d97cd71U, 0xbc4ec103bee97bdcU,
  0x3f33db0a3fa3aa38U, 0xbf7e554c3f19448dU, 0xc0ba7b33409199d6U, 0xc087e4983d7a82cdU,
  0xbfe73661bfcfe431U, 0x40dabe833f3dcb3aU, 0xbeb02d843f6e4f43U, 0xbf64f3a83fbd1f4dU,
  0x3ba22e663f72e183U, 0x3ec115c8be49aa77U, 0x3e47ba22bfb7c3cdU, 0x3fed29b53e021405U,
  0x3ed8dea6bd60b00eU, 0xbeff23123fc85429U, 0xbf3f09ee3f939831U, 0x3f687cf53fad3386U,
  0x4011aae5bd9d5a16U, 0x3e236318bea8ddd4U, 0xbf71a7373eaf6471U, 0xbf2df8f1bf08ecdeU,
  0xbdb4fa213e8bf76bU, 0xbe8b64d5bd20c84fU, 0xbe852e93bc2b6805U, 0x3f25b7603edfa923U,
  0xbe84067c3dc92b56U, 0x3f3e1a34bf05234cU, 0xbf8b8e05be0a1d34U, 0xbd7fede8bf49448aU,
  0xbe95675d3e7e198bU, 0xbc8f8c32be6cec45U, 0xbe8e5a52bed5a133U, 0xbe841fbcbee1c2b1U,
  0x3f298b5c3adac71eU, 0x3ec11fcf3e7328b6U, 0x3dc470aabe9f1ebaU, 0x3e77839abf1bcf58U,
  0x3eaeec2e3e39d338U, 0x3ee5056cbe5e5cf8U, 0x3ed88efd3efd8e54U, 0x3eec577dbcadfe6fU,
  0x3f2a23063f926736U, 0xbf436c3ebd1463cdU, 0x3ead41813d5f38caU, 0xbf37be2abf15cfd8U,
  0xbedfa6f1bec8fd01U, 0x3e06cbe33f0d353aU, 0x3e020a0b3d312c47U, 0xbf25223c3ede994eU,
  0xbd917cf3bef2cec4U, 0x3ea51f7abed15ab4U, 0xbeb3ba0e3ed31afbU, 0xbed6f8b4befc4f1fU,
  0x3e9bd2683e7d46c1U, 0xbd9df12cbeb4eff0U, 0xbef32d783d4b94d6U, 0x3d88834a3ee2c10dU,
  0x3dc3d800bdaaf568U, 0xbec7690b3eaeee17U, 0x3c065728bf7cdaf4U, 0xbce835c2bceca11dU,
  0xbe87fac33f093892U, 0x3d752b4abefa5717U, 0x3f0a5dadbd67c3daU, 0x3ec4c6fa3e1b7db4U,
  0x4026772abe589449U, 0xbe0d89b0bf40e817U, 0xc006a78b3fe35d5bU, 0xbee90bcd3fa5a856U,
  0xbf238e993ff6920aU, 0x3eda264cbe12606fU, 0xbf878016bf4e15faU, 0x3e3767fc3f650c29U,
  0xbf3e395f3f187f15U, 0xbe9b8a5ebeab9aaaU, 0xbdef66963dda3bb3U, 0xbd23638ebe71b48fU,
  0x3d23ec74bed61ed5U, 0xbf2ce1213d8041e5U, 0xbda73a8f3f06e967U, 0x3f0c50debf233d78U,
  0x3de392e93ec9de83U, 0x3dd981ddbf13f1e2U, 0x3f7888293f29b24aU, 0xbe87007abf60b384U,
  0x3ef3f0383f538e28U, 0xbf1bd89d3f1ec0c7U, 0xbfbcd5663f629245U, 0x3e46955dbe7a1fb8U,
  0xbfb5d9453dad2510U, 0x3fc4c1ef3fb0e39eU, 0x3e7e6092bf7c8127U, 0x3f9408b6bf22d6bdU,
  0x3f5261373f1633deU, 0xbe050de33ee4fef6U, 0xbd43cd003f6d164fU, 0x3f7c9e6abebbc730U,
  0xbe998e6e3f4145caU, 0xc004124cbf49a4e4U, 0xbfa432c8bf20964cU, 0xbfc89376bfa1b940U,
  0x3f087a37bf9a2b3bU, 0x3e1010093eb4f845U, 0x3e8dc974bf0981c4U, 0x3fdf3001bf24481dU,
  0xbf8272ec3f8ac141U, 0xbf50e0ab3fa01812U, 0x3fb47647be728700U, 0xbf0c56ac3f13aa6bU,
  0xbdd5d523bef34ac8U, 0x3ce9aff63e95b371U, 0x3d60ffb03f4af392U, 0x3de92f8bbc114b59U,
  0x3e72cab2beee6492U, 0x3eac04383f42d519U, 0x3eb992d0bdf9b48eU, 0x3dd4228d3f3a94c8U,
  0x3eec2e81beb7d216U, 0xbf6478a9be6879abU, 0x3e9a96fbbeee06f1U, 0x3f29e6bf3e280279U,
  0x3f80e947bf4bd8efU, 0x3ec6a1d7bf786b04U, 0xbf19ca75bf012fdeU, 0x3e2414e53f3cb4f0U,
  0xbd36ed80bebeb31dU, 0x3eec44ed3e59b56fU, 0xbe8c65c13f066b5eU, 0x3e1769e13e918941U,
  0x3ef99274bf901030U, 0xbf5eb7db3e890e57U, 0x3fa0a244be7ce4efU, 0x3de11f8ebcb8eff2U,
  0xbf08245ebf3f4edfU, 0x3f4bbd833f977c3fU, 0x3ecbf420be774e0eU, 0xbf83ff2cbef1431fU,
  0x3ebc752dbf0467fdU, 0x3ef2c5a5bd6a9872U, 0x3e57d0833ece1b32U, 0xbe15dfa33f11690cU,
  0xbee1b8193f6cda4fU, 0x3f54f55fbe841988U, 0x3f7afad5becdd7b5U, 0xbd7f51d73ef3488cU,
  0x3f16be403f108e26U, 0xbda006963e3d1915U, 0x3f14d1f13de9a77bU, 0x3f28b4993f3a44acU,
  0xbf5b76773e82b183U, 0xbd4a3afc3ea75139U, 0x3ee457733f4ec849U, 0xbe3002f1bf02916eU,
  0x3f05477b3ca0764eU, 0x3eea6bbdbf6aea31U, 0x3f211f753f03046fU, 0x3e1684353e83cca9U,
  0x3f8322e4bf870809U, 0xbea5162fbf2dfc44U, 0x3efb9131bc3f9e2eU, 0xbe70e4cc3eb661feU,
  0xbe092f95bec0a3daU, 0xbeecc2b63eb96791U, 0x3ebffa8abf1e4f57U, 0xbed0f6b5bf088e13U,
  0xbf223af53f4d2b1aU, 0x3e588349bf75a72bU, 0x3bd704c8bf07053cU, 0xbef010373f50e19eU,
  0xbdfe1862bf0f0207U, 0x3e65dbe2bee707e4U, 0xbda1db203e814acbU, 0x3f3a987a3d6364b0U,
  0xbf274643bebd7386U, 0x3d681192bf971d95U, 0x3e79cc7bbf0d4c8bU, 0x3ea4689c3f597fd6U,
  0x3e99aa1d3f36d3e9U, 0x3eda877a3f182840U, 0x3f058bd3be82708dU, 0xbe389315be632679U,
  0x3f4cc165be7eedafU, 0x3fa603783edbf555U, 0x3c0e5ac53f92c9f9U, 0xbf770ab03f794cbfU,
  0xbfa1054fbfc67a7aU, 0x3edf3c1b3f025ef0U, 0x3f1380afbe96508cU, 0xbce695aabed55e99U,
  0xbe44ee4a3e219c60U, 0x3edba14cbeb5f346U, 0x3e1790c53e22d9f5U, 0xbeb179903f60cd4dU,
  0x3f80931c3f1d1c2aU, 0xbf0460b8bd3074f5U, 0xbf17e6063d46eb44U, 0xbf3285953f13f071U,
  0x3f1b07c9bf0bf18eU, 0xbeee5a32be8f03c4U, 0x3e67a29c3f18fa19U, 0x3f3044ab3e31609aU,
  0x3f3dbdc6be8936a8U, 0x3f708950bf52cb8bU, 0xbf92e2b53f0fe011U, 0xbe2e8dc6beaf36a2U,
  0xbe7a1c7f3ef21057U, 0x3f08c4cd3ee83d46U, 0x3ed09777bef96bf3U, 0xbe78d751bf0f06acU,
  0xbf1d9ba2beca176dU, 0xbf4f8bc1bf2cb949U, 0xbe9e51ddbf1ecbe6U, 0x3e537ebebe139b85U,
  0xbf56d9f7bd7b7823U, 0x3f4ef6c1bf238105U, 0xbe70967bbf6441a7U, 0x3f0b812dbf59d853U,
  0xba1d64fd3f3d558aU, 0xbe92d9ffbf3700a8U, 0x3e1cbe41bd7b85f0U, 0xbee8e5eabe7ed73dU,
  0xbe90759fbcad4e6eU, 0x3f44494e3d218532U, 0x3eb6dbabbea7c384U, 0x3e54607f3e0332b4U,
  0xbfad6f5fbf1588b6U, 0x3e86f6e4bef6cb58U, 0x3f3f66693f3b257cU, 0x3e1573de3e106926U,
  0xbf54a5843e39d1bcU, 0xbe1e067b3e85c969U, 0x3f0a93abbdf8fb85U, 0xbf4085e8beaa4c48U,
  0xbe8ad8573d8d398cU, 0xbdafce7fbf3fe4d8U, 0x3f24f47cbe74bdb4U, 0xbe12f3bb3dded9eaU,
  0x3e307aec3ee0751bU, 0x3ecde64b3eac4604U, 0xbd411af73f17bf6bU, 0xbf0dac11bcc3bba7U,
  0x3f208e2d3f6cf804U, 0x3eb8687ebd11bc98U, 0x3ecf7b363fa70084U, 0x3f6ce1f03f038a01U,
  0xbe579b443c570386U, 0xbf8f278d3f05cb02U, 0x3df3af273e75655bU, 0xbb3069563e880fabU,
  0xbea27544bf041915U, 0xbf12abf6bda61c7cU, 0xbe4334ba3ee490c1U, 0x3fbb6eb5bc15c45eU,
  0x3ed7c3853efa5e64U, 0xbeab0bb23ec62f08U, 0xbf27f07e3f31cbf6U, 0xbe0f62ccbf9d601dU,
  0x3daf1fb33f4495eeU, 0x3f05334fbeec7ebbU, 0x3e6f1b673edf656aU, 0xbe015af83dc1563eU,
  0x3d4bcd3fbefe9e8bU, 0xbe89c3aebecc6d90U, 0xbeada6b53e199773U, 0x3f4151153f112fe8U,
  0x3ebf76d53e947e1cU, 0x3e39218cbf2b1c77U, 0xbe8c2c633e928d76U, 0x3df3c317be9617d2U,
  0xbc34b50b3e91bbc0U, 0xbe1a537dbe453df4U, 0x3f09c0c6bf65e0f3U, 0xbf3b8d96bdbfe151U,
  0x3d9ce92cbf1cf5b7U, 0x3f0764a7bf427193U, 0x3e80c508bf2d01d0U, 0xbef92ea5be2af1b4U,
  0xbeb6d544beab344fU, 0xbe597bd53e5fd764U, 0x3eaf07563f166c5eU, 0x3f3369503f060709U,
  0xbe7f043dbdc26139U, 0xbda48d4c3e13cc26U, 0x3e88ff073ea29851U, 0x3e615a563e5ad87eU,
  0xbceb1756bc9d4b01U, 0xbe25e4ecbe9ecba6U, 0x3ea97110be9e1546U, 0xbebe7ac4be8d6039U,
  0x3eb7266bbd2e50ddU, 0xbe258a193e8f1ecdU, 0xbf1e4854bde206a5U, 0xbf47bf42be63559dU,
  0x3ebfbc28be0bd9d4U, 0xbdbe11c6bc224364U, 0x3ee913813f3b0442U, 0x3f258ab13eb59ccfU,
  0xbe7233b8bb82cb19U, 0x3e5216603e4d2870U, 0x3e8e6f62bdbfa83bU, 0x3e5376eabe9cc032U,
  0x3c59712c3ec6ff77U, 0xbdca72bcbf0d4610U, 0x3f13af6ebd315aa4U, 0xbee865713e59585fU,
  0x3f1680e73d1a0e39U, 0xbe1e84febee95691U, 0xbe7914b63db24bd1U, 0x3ebbdf5cbcacd4f4U,
  0x3e14a8573ecd2cfcU, 0xbf14ef3dbe1a9f73U, 0xbe00c381beddf1eaU, 0xbe373adfbdc5a63bU,
  0x3e9008903e53d5d2U, 0xbeddbc4a3ecf32b3U, 0x3ec129463f46cb42U, 0xbea210eabbe73c37U,
  0x3e20b8173f3cf9f1U, 0x3e4dde0bbeab7b73U, 0x3eada823be625a85U, 0x3da4fba9bf21b76fU,
  0xbe143b4fbe5f7c5aU, 0x3e5c9c07be178f31U, 0xbe802559be1ec416U, 0x3d34cfcabe249861U,
  0x3c7676343e053984U, 0xbe81dabb3e245747U, 0xbedd5d95be421dacU, 0xbe3d81443db23c5cU,
  0xbcb03a6b3ed508b7U, 0x3f33a9e63d7d764aU, 0xbf0dc03d3e18458dU, 0xbe52fe0fbd220999U,
  0x3e7f75ffbf16356fU, 0xbe1f663cbb865b2aU, 0x3e4dfadfbf00fe1cU, 0x3d94e8cdbebc5f73U,
  0x3ecc0893bf051775U, 0x3eb501fe3ea8d02eU, 0x3e0af66ebeccf581U, 0xbd81b0d0be7e6645U,
  0x3ef599893e00b219U, 0xbe9ca65e3f9f7900U, 0xbd7273adbedb28f9U, 0xbe97c30ebe80e830U,
  0xbe8d26a5be9fc38fU, 0x3db29a7a3e9c41faU, 0xbf2c8cd8be507239U, 0xbe800eb93e60693bU,
  0xbe648a44be89e8acU, 0x3e6a15cb3e88b03eU, 0xbf0e6f87be47f204U, 0xbf029a293d097d09U,
  0x3e973f0a3d5a7eecU, 0xbc84e20cbe922c93U, 0x3f2c491fbefed871U, 0x3e462efd3d6202ddU,
  0x3e0df121bf4e75b1U, 0xbd13a4f8be5d083bU, 0x3c5febfa3d5ea46bU, 0x3e34e7c23e611500U,
  0x3f1507c7bec682d6U, 0xbe4de847be6f8647U, 0x3ef52a2dbde24dfeU, 0x3d5ce54b3e9fd9f7U,
  0xbcb98343beb63473U, 0x3ea47123be15920bU, 0xbe1370acbead28f3U, 0xbcd4b412be807917U,
  0x3ec5645c3eb05511U, 0x3edea1e0bbb095a9U, 0x3daa267a3da2d1e4U, 0x3f027c083f0459cbU,
  0xbec564433ed63666U, 0xbe4e34013f01d0f4U, 0xbf0abeb6bee89a59U, 0xbeffd5d3be562471U,
  0xbe2218373e324953U, 0x3eb9a6f43e2bc17bU, 0x3e4f2f073e74558fU, 0xbdaa3bbabb05b5adU,
  0xbeca386e3c1bb709U, 0xbdd9d37fbda2dfb0U, 0x3e8563e03e20d52cU, 0x3ccf5d93be2ab256U,
  0xbdce3e093f2e8a45U, 0xbee0a69abf1516ddU, 0x3f02c80cbf5cfaa5U, 0xbe5024f53f1d2798U,
  0x3eb69b9d3d84ab54U, 0x3da51ab8bde47eb7U, 0xbecbe9ed3cc1005fU, 0xbe066814bea8f83eU,
  0xbc0e56c7be1baf64U, 0xbec2be8bbed7bd27U, 0x3e3a32233e0937edU, 0xbea88e5c3e0e2635U,
  0xbe416fe03ea207c8U, 0x3e9e42ccbe95f28aU, 0xbdd1669fbd66fd70U, 0xbf0f7f80beafeecaU,
  0x3f2311e13c87dd0fU, 0x3e83175ebf1b2d5cU, 0xbee24bdcbed8337cU, 0xbf09e3033f08295dU,
  0xbd3e546fbe1ca213U, 0xbf397cb73ecabd3aU, 0x3ed09251bc85c845U, 0x3ef901f23ea1612bU,
  0x3e63183b3e85b176U, 0x3efbbe8f3dafba8aU, 0x3e72a9663eab30e6U, 0x3dac6a75beb49f3bU,
  0x3e08ec35bdb3e807U, 0x3efa135cbe940ddcU, 0xbe997328be897635U, 0x3e7ed28ebe381754U,
  0xbc29ec61be4a1769U, 0xbf1e53e0be30b0ebU, 0xbf0110f7be9b8049U, 0xbe927cfdbea1bedfU,
  0x3f06b1b8bddba744U, 0xbd5504ce3d9cb332U, 0x3dc89c71becf2f6fU, 0xbcc752733ea4da8cU,
  0x3e488d87be78ec1eU, 0x3e9f1b02bf27bab0U, 0x3e90529abe3c5b2bU, 0x3d685d533ecd43a1U,
  0xbe915d08bf3a5e6eU, 0xbf3227153e83f702U, 0xbefa766f3f2c81e6U, 0x3eda2df5bdd5144cU,
  0xbef9a701bec078baU, 0xbea7d75dbe0ad03cU, 0x3ee9f986be515d3bU, 0xbeea82113e72a66cU,
  0xbf17c6cabeb4a6adU, 0x3e6658ce3cd3f453U, 0x3ee90154bb91ecd8U, 0xbf099d553e8b0f24U,
  0xbe17bac4bd05f5f4U, 0xbeb48998bef525d4U, 0xbe358f9c3e9ad189U, 0xbe0607c13e2c3607U,
  0xbe4eb2bb3d1eb615U, 0xbf0e6f9fbdb31564U, 0xbddfb971be288be8U, 0x3d67e4f9bc9c6516U,
  0x3e801493be4f9e44U, 0xbf06c3843eff45c8U, 0x3e112a55bed360ffU, 0xbab4bec83d3556d9U,
  0x3f578c523e0eac80U, 0x3f1aa14bbeb90e39U, 0xbf498da33e140151U, 0xbd4e5da1bebb8ea8U,
  0xbf02c4e2be3d3a6bU, 0x3ede068a3ebf279aU, 0x3e0ee259be2312d0U, 0x3ee7e3013df46f69U,
  0x3d43f3263f232cf8U, 0x3f7acf38bf0562d7U, 0xbdd2a1d4be230dcfU, 0xbe417ac63d8f7537U,
  0x3ec6dca6bee46ed5U, 0xbf03905bbe59e241U, 0x3f2b52f2be2b95ecU, 0x3eb818653d6136caU,
  0xbc4028dd3de5156fU, 0xbe7899603d811a04U, 0x3f3c92fa3de39f35U, 0xbdab928b3e96bf17U,
  0x3e0b9967be427b9aU, 0x3e08de2f3eed0a14U, 0x3f0aabbebebe35cbU, 0x3d341d07bf07bad7U,
  0xbe2c053b3ed618baU, 0xbcd96a013cab926bU, 0x3e0daf80be85bd64U, 0x3d09db8a3df34b75U,
  0xbe2ec5463d084edeU, 0xbed8adbfbe042b70U, 0xbc9d9ff43ef50373U, 0x3ea56d4a3db8444eU,
  0xbcc75c0f3e5b68f3U, 0xbe3c0aedbed726d8U, 0xbe371547bf460969U, 0xbf034853bee23c39U,
  0x3ed0df7b3e1cb7a0U, 0x3ee035423e265b38U, 0x3e92b4783e8c6b66U, 0x3eb2c2bebdb0f7dbU,
  0xbe7bc7f4beb1329cU, 0xbe319921be3204c2U, 0x3d6193703cea5818U, 0x3ec7e2a63ceac516U,
  0x3ec7dc1c3f5ca88dU, 0xbebabf423f0f044eU, 0x3e9209033f297081U, 0xbf38d604beda1987U,
  0xbf8759b33f282c6cU, 0xbec174343d957c30U, 0xbf1456b8bf166212U, 0x3f0c4738be74ca46U,
  0x3f0a5bae3daba171U, 0x3e10a36b3e7f969eU, 0xbe30dd033f6cbf59U, 0x3dcb4ea83e300d06U,
  0xbedad9d73e8da604U, 0xbf3555b03f19aa67U, 0xbf0565acbca2c89aU, 0x3d80ea433ceb42b2U,
  0x3ee20e82bf00d2ebU, 0x3e96bb773cdeecd9U, 0xbe66950bbea13d01U, 0xbefa74ce3eaac9d0U,
  0x3ec9be543f2da20dU, 0x3f8006d43e6a509fU, 0x3eae1bf83de3f780U, 0xbe41cbb3be29f14cU,
  0x3f29b4233f0875eeU, 0xbea06bdd3e50253cU, 0x3e7445613f80c91dU, 0x3f3d6e803f206bd5U,
  0xbf1110b53e91ded6U, 0xbde5b05ebf04bbccU, 0xbf2615733f3c1a31U, 0xbed37d723ec56e65U,
  0xbeb3d9913e93de96U, 0xbdbaa222beb4355cU, 0xbf170157becaede9U, 0x3df0ec643f102413U,
  0x3e9d3e2f3e4fd9a0U, 0xbe13ff62bf03fbedU, 0x3ec751aebedf9856U, 0xbe5069d23f749628U,
  0x3f74b0f9bcec1100U, 0xbe684a78be2c2ea1U, 0xbed15d5f3e5d21e1U, 0x3eec19573d02f31fU,
  0x3f42e03abf9b9153U, 0xbda198eebef86581U, 0x3f45065e3f09cfa0U, 0xbd84aecb3eeccd1bU,
  0xbf8c248a3f8e2dc1U, 0xbefa73ba3e2225f5U, 0x3f1c85b6be2ad383U, 0x3e8d5651bf21dc52U,
  0xbe62670a3ddae5a9U, 0x3edc98463e95d211U, 0x3f1b78dabea947b9U, 0xbea03962bef3b522U,
  0x3f20757a3f555d38U, 0xbf4388d33ef39d0aU, 0x3e91c7e73f26ad10U, 0x3f43d95a3f2f1380U,
  0x3fa28a8a3f0eb38dU, 0x3e914548be81ecccU, 0xbe0851163e5de45dU, 0xbe474db73f96ea2aU,
  0x3d39be8fbef136d7U, 0x3f4170d8be527900U, 0xbf1a1c063f150f97U, 0xbed147673f1235f0U,
  0xbf714c7d3dea58d1U, 0xbf87e0c73f352a8bU, 0x3f1d18a6bf5db2fcU, 0xbe487dc5bef01bb1U,
  0xbe8036973f081b7eU, 0xbf174231be1ce86eU, 0xbf3cfa1a3f1ad4c2U, 0xbed61673bee35f17U,
  0xbedbf9943f54cadcU, 0x3ebfc0ce3e971590U, 0x3d39da5bbeac1a5aU, 0xbf6f13343ef9e2a7U,
  0x3e9292573f0c2d41U, 0x3e97303fbf318d33U, 0xbf5e23c43f031998U, 0xbf09d6b33fb5440fU,
  0x3faf38f33d9c6c11U, 0xbeabb367bed0eb93U, 0x3efcc646bc997d29U, 0x3dfbc2f7befa121cU,
  0x3bc875303f187265U, 0x3ec58649becc1299U, 0x3e9be153bf23365bU, 0xbe749461bdec0033U,
  0x3e05922dbe2dae0dU, 0x3f079e6bbef8af4fU, 0xbf0cc1b0bd0ac637U, 0x3eb83d7abedf14f9U,
  0xbe67b42a3f208044U, 0x3ec863773f355497U, 0x3f34a7c0bea41735U, 0xbe86d3d6bf2f2e36U,
  0x3f0731e73e2d8045U, 0x3f3757dabf7300f7U, 0x3f704dcf3ea52c6bU, 0x3d9152bdbd4f631dU,
  0xbf2e79663e794c11U, 0xbe680024be6e7c84U, 0xbe985dd0bf0cfa27U, 0xbf1e9daabf135db9U,
  0x3f80d5cabc06074cU, 0xbf0d2c093f095043U, 0x3f3bec073eb9c767U, 0x3f2a7a20beb9a0edU,
  0x3e720c163eb59db9U, 0xbc836b943e21717dU, 0xbcc435efbf4efc70U, 0xbe89be673eef7f97U,
  0xbea5e77ebdab8481U, 0xbe6ddbddbfa2733cU, 0x3f1c50e73eac0396U, 0x3e49e9a6be74cfd6U,
  0xbf2f493fbe64da97U, 0x3f01ccfabebb0fc5U, 0xbf7abcd9bf51f5b6U, 0xbeb0a2203e1083ffU,
  0xbf2444ce3d62947aU, 0x3f8e82b1bf5c3f8fU, 0xbe5eeedbbf8af142U, 0xbeab402c3eb4a6b7U,
  0xbdf9d4fe3f593f52U, 0x3fbe52ba3f8bc580U, 0xbf26e8debe88bb6fU, 0x3f0e3198bf23953aU,
  0x3de66f5a3f571f89U, 0x3effaf27be956f9dU, 0xbfa02924bf4ee54bU, 0xbf0aab18bef3338bU,
  0x3ee9e424bf61e9ccU, 0xbec8e54b3f43f4fbU, 0x3f8463d83f38f957U, 0x3ee3302fbf6c7642U,
  0x3dfd2f0fbf230c76U, 0xbe55e934bcf323e2U, 0x3e93823f3f508b15U, 0xbe95e4c9bf2fc86cU,
  0xbf636ad9be924ffbU, 0x3e400b863f346aeeU, 0x3ec73875bf3950adU, 0x3fa33c27bf77a203U,
  0x3f193474bf43ba9dU, 0xbefbab393e37bb5aU, 0x3e351dbdbf2efeaeU, 0x3ea86fb73f5c5ba8U,
  0x3ed502bb3daa5e72U, 0x3fc545293f4284deU, 0x3e14a874bf728ffbU, 0xbec826eebf276120U,
  0xbf7accafbf1ecac4U, 0x3c42de0a3f4b0c32U, 0xbf79d2a53f145882U, 0x3f4d44b33c40c5daU,
  0x3ec39a2a3e878b51U, 0xbf1845913f5dc3daU, 0xbf4db0d1beebd380U, 0xbdd3631d3f476256U,
  0x3ecfefd3bd8b2e3cU, 0x3f67b3d63dfa15b9U, 0xbf1ff6bcbe624ca0U, 0xbf2966743f2431d1U,
  0xbdf6cb263ef015d1U, 0xbf0cde613e9334f0U, 0xbedd6799bf2a36b9U, 0xbeb16c3d3c9ffed1U,
  0x3e81de733f545c77U, 0x3f4e527d3ef243d7U, 0x3f2a0333bf6456abU, 0x3f85e691bf19d16aU,
  0xbe8f458e3e2afd52U, 0xbe98b6b43ecda4d5U, 0xbf2970bcbe085a20U, 0xbd4133f2bf4591f8U,
  0x3f11d0643f1d8e95U, 0xbef04f0bbc642104U, 0x3c1ba9f0bc413fd0U, 0xbec73e87be41d465U,
  0xbf6770803f68a2f9U, 0x3dc86f863f4496bdU, 0xbf1eadc03fa31128U, 0x3d3776943f07a4d7U,
  0x3d13efb83e905c15U, 0x3eb74927bea605f6U, 0xbc7687d03dff463dU, 0xbf2923413ec8a122U,
  0x3e8fbf0fbcb6b7f5U, 0xbe90da3c3e8c1b45U, 0xbe56b470be6c162eU, 0x3e97cc413ee23d48U,
  0xbe0fc19ebe26fee2U, 0xbeba08f23e1cf66eU, 0xbeadaf17be333a23U, 0xbe46b6ef3e4bca3dU,
  0xbdb88a433cf42e0aU, 0xbd33fbadbe074ddeU, 0x3df42c4e3e63a074U, 0x3eb97e2d3cd861b2U,
  0xbaad77783e770f30U, 0xbebdb90b3eaa2208U, 0x3e9cec6c3d1b875bU, 0x3e3014dc3e926c52U,
  0xbeaf9f8abc1068aeU, 0x3d4137cdbe9f79ccU, 0x3db467393e10f5a6U, 0x3e940f323d07738eU,
  0xbe78a6c93f09ba0cU, 0x3ed0ad7abdab17e9U, 0x3de1de5c3e8023c5U, 0xbeb071ef3eb2b144U,
  0x3de3fee03ebd9920U, 0x3e886e60bdc3e017U, 0x3c99f8f6be7b3a19U, 0x3ea384b13e8d5373U,
  0xbea4c72cbeb188d2U, 0xbe90c2a2bc1a4016U, 0x3dd2feb33e8d925fU, 0x3ef9602dbccc569bU,
  0x3dd6ab7bbdcdabbcU, 0xbdd88f493be32186U, 0xbe01fcb9be0e7605U, 0xbd383c283cf188d0U,
  0xbda145adbeb402ccU, 0xbe504ccbbe3b4084U, 0x3dc1a95ebeb96267U, 0xbe0a74f83f184fb1U,
  0xbd94b80bbdb00a54U, 0xbda664dbbe94242fU, 0x3cbc0b58bd9f93e4U, 0x3ee54e5c3ede7798U,
  0xbea33dedbe8030feU, 0xbca9d94fbdf6a4e0U, 0x3eb64a70be007f98U, 0x3dbd7899be039734U,
  0x3daeec9a3e7cfad1U, 0x3e59f6d7bd83bdb3U, 0xbdc9b04dbe084325U, 0x3ed8b5303d95b801U,
  0x3d99273bbdeca2adU, 0x3e358b2f3eb8a695U, 0xbc9ec2063e1967ecU, 0xbef5db113d20778cU,
  0x3cda52903ce27239U, 0x3dffb9ca3e442736U, 0x3c87f91a3e37da49U, 0xbe0543ff3f03dcc5U,
  0x3e5cf71cbe60215dU, 0xbe880ff0bb172296U, 0xbe2fb5323db026e3U, 0x3ea5ab3abe5245d6U,
  0x3e8285983e44d7cbU, 0x3e92c65b3d1e4882U, 0xbe21925e3cc4a1b4U, 0x3e3aa9553e2b452fU,
  0xbdf9ac473d6b83b1U, 0x3e6d1ab8bd9de15eU, 0xbe72da5a3ced7510U, 0xbe2a9a043e0ea701U,
  0x3e21bc4dbe594dd4U, 0xbda9fb53be0d32ebU, 0x3ccd0e92be94c0a8U, 0xbe5399953d9eb6acU,
  0xbcd99b503e3a2844U, 0xbdc98a323cbb1547U, 0xbe814c23be9f9d5dU, 0xbd5e741dbcc14fb1U,
  0x3e8722a4be932665U, 0xbeb3a610bcb4868fU, 0xbe1d2ad03ea536daU, 0x3ec78d483f06d42dU,
  0xbf20f0b8be01ce3cU, 0x3e1cffa33ea136aeU, 0x3ea5cfe03e475fecU, 0xbe6dbcd53e7c4881U,
  0x3f0128d4be8f8859U, 0xbd396b593e82ca52U, 0xbccd48eb3d2fddfcU, 0x3dbff893be60cd8bU,
  0xbee3a48bbe34c42fU, 0xbe754a92be8eaa08U, 0xbeb526c8bde42940U, 0x3e9f7666bf45f5dbU,
  0x3e5786203db6d37eU, 0xbe6c7d74be753bd3U, 0xbd36ca6c3e64f090U, 0x3df49b4dbf09781bU,
  0xbe34a1423eb0bb42U, 0xbe97507e3ddc0273U, 0x3e45b6853de45145U, 0x3e9efd643eae4e29U,
  0xbf132aa0be2b49c5U, 0x3e94c30ebd849d0fU, 0x3e380bb6be901560U, 0x3d977e813da2dc4aU,
  0x3e3f80213e2e77ddU, 0xbe6297ea3de37c12U, 0x3e740bea3e549808U, 0xbd644812bdc3d8b0U,
  0xbeec70943e2e1421U, 0xbeb181ecbbaf6532U, 0xbe4b1a22bebfe522U, 0xbe06b8473c8bed50U,
  0xbd56113dbe68002bU, 0xbdb4e928be513d19U, 0x3e9e280dbf164ce0U, 0x3d8af2a83e4fbcefU,
  0x3df085113e8a907dU, 0xbda2cd9b3f2c52b9U, 0xbe902472bed1797cU, 0xbeadcb773dae43ccU,
  0xbdd01dbabddea163U, 0xbdcbd46a3dfc7bb3U, 0x3e9eca2ebbe8aaf1U, 0xbe8dd8f83e8b863bU,
  0x3e4dcc12beadd038U, 0x3f23eb8d3ed4398cU, 0x3ed905943c4d0ab1U, 0xbebee0fe3db035c0U,
  0xbed6551bbe97dcceU, 0xbb77efe4be63e807U, 0x3db5f1813dda964eU, 0x3d45c843be1e965cU,
  0x3ec96fb23e59464cU, 0xbe31faf7bd816aaaU, 0xbdbcc3c6bbb79b8fU, 0x3d6b3a5ebe855c02U,
  0xbf192f7bbc9f66a8U, 0x3e3e5c73be8a3d54U, 0xbeaebed0bf0cd01aU, 0x3dba8e4ebe8580bcU,
  0x3de590ebbd54ce3dU, 0xbe609eacbea721f8U, 0xbc72d10dbe0fecd6U, 0xbe0652debe887853U,
  0xbd84d5773e67da61U, 0x3e59ae053e84704cU, 0x3e49c2e33e47991cU, 0x3e08ebb0be435afdU,
  0x3eecc471bc72c9deU, 0x3d5e2888beb20753U, 0x3e59a971bd8b83aeU, 0x3efb144fbe999bb5U,
  0x3e92ae323e2e7c15U, 0xbe8e5fbbbc26b478U, 0x3e9bf83e3df9fb99U, 0xbc12d1b03de071d7U,
  0x3ada4a343bd277bfU, 0xbd81df8bbe19ace8U, 0x3df487d63e4897e4U, 0x3eb92539be133d5bU,
  0x3e552467be0864adU, 0xbf17f125bd953116U, 0xbda2c515bd9edee4U, 0x3d793fbabd308c3fU,
  0x3e9436293e18f141U, 0xbd9f2591bd8d664bU, 0x3df263a43e10569dU, 0x3ebe6e5d3eb25321U,
  0x3eed9d043f2d0d38U, 0x3eaa09bdbd378875U, 0x3dd2830f3e81e9f3U, 0xbd920b2b3defd389U,
  0xbe255d6b3c98dc0fU, 0xbe725c003d8de9bdU, 0xbcefe12b3e03e25dU, 0xbdab80f6be16e6afU,
  0x3dfac16e3d6ad8beU, 0xbdae57d33dead8d2U, 0xbe0cbaeabbfbea04U, 0xbca3d318be83bec3U,
  0xb961801b3e305420U, 0x3e94599a3c977596U, 0xbe095e1abc34837eU, 0x3e8934c0be28867eU,
  0xbdc94f3c3da10ab1U, 0xbdb0f132be46bb9aU, 0xbe0d2f84bd2f0a97U, 0x3dea2bdcbe772f26U,
  0xbe23ba6e3d30d24cU, 0x3e283950bdf23f61U, 0x3dde1e58beaadc6bU, 0xbd792710be69733aU,
  0x3e83d5e43d0a8036U, 0xbe814ef73e8eb751U, 0xbd51102bbf213398U, 0x3e01efb73e2d05a3U,
  0x3e9e100f3e4839c9U, 0x3e39ef2bbd42661eU, 0x3e9591963deb89dfU, 0xbea3ebb0be0695f2U,
  0x3d6408aebe6c4635U, 0x3eb060a7bee51327U, 0x3e2943893e280e6dU, 0xbdbc8df83b40e075U,
  0xbe158bc23e23610eU, 0x3df4f7d43c800d5dU, 0xbc5ca681be240df1U, 0x3e47f2f83ce806b6U,
  0x3d65795f3d630558U, 0x3e24f23e3dbcffc2U, 0x3d19efed3dde8091U, 0x3e9e8dd83e9fbafeU,
  0x3e82bf5abe26969cU, 0xbdb3cce7bea77ab9U, 0xbe6063c1bef67ee9U, 0xbe40a73e3e828daaU,
  0xbded0b83be16cef3U, 0xbda1fc20bdf998beU, 0x3e8a9baebdd5b724U, 0xbe4a2e29bd2767c3U,
  0xbeb9bf5cbd839b8dU, 0xbea7d9afbeafab45U, 0xbe57e991bce2ff0dU, 0x3ed78e213e8f0afdU,
  0xbf221b2cbd9c4751U, 0x3c7e01013e86c18fU, 0x3e1a551c3e2dc175U, 0x3e80282e3e1ed808U,
  0xbd2a1beabec60d86U, 0xbd84829abd927baeU, 0x3cae96873c999ca5U, 0xbd51bb2fbe500528U,
  0x3ef27384be95ecc9U, 0x3eaf964cbe69bf1cU, 0x3e97ea503ec443ddU, 0xbe1f7f873dbc68d0U,
  0x3ed867edbf0b7eb7U, 0xbe5eefc63e9097c5U, 0x3e45b0b1bda41e25U, 0x3e3110b83e6325dcU,
  0x3d82baf5be33c4f4U, 0xbe440b7e3d72bbc5U, 0xbea72e133e7820b3U, 0xbd2a666dbd0ffab4U,
  0xbe465254beaa9bc8U, 0xbea5b6c3bc45b804U, 0xbed97063be9eb155U, 0xbe671350bdba0996U,
  0x3e3f8603bc94a004U, 0xbedaf92a3ea4a64eU, 0x3e8a91ee3ebdd0cdU, 0xbe5a7360bebe8be9U,
  0xbdf91bfbbe135670U, 0xbcb8b7f0be81b052U, 0x3eb15abcbde1db07U, 0xbea46efb3d212c24U,
  0x3e04b50bbded6f44U, 0xbe8f53fe3d99e510U, 0x3b465c333e08b35bU, 0xbe0855d0ba220cc8U,
  0x3e6d0e14bdf5a62cU, 0xbeb47b4fbe8de7fdU, 0x3e9f5179be39ec87U, 0x3e05870cbe819f37U,
  0xbe1e0fe4bd41fbe3U, 0x3ed81103bc4790d8U, 0x3dc4eaaa3ead4700U, 0x3d906753bce861d7U,
  0x3e2580963e77ca64U, 0x3ebdeb9cbcfc4153U, 0xbe7797a4bc74d5fbU, 0xbcadca143ec19b9aU,
  0xbe21713a3d9403b2U, 0x3d75b5a23ea47197U, 0xbb9a28603cbe34c4U, 0xbd279d27be6c6ab2U,
  0xbe31eb683e6a1824U, 0x3e5186d93ed0a174U, 0xbdbf323b3e84a1a4U, 0x3ea3d5f9be2cea44U,
  0x3c071e26be49bc75U, 0x3f0b38f1bdf4b8e1U, 0xbd84d39c3e84e2eeU, 0x3e92f2803d5a6693U,
  0x3e974a8dbe0ce4e8U, 0xbe8182fe3f11d1e8U, 0xbcd2a04abe169ab0U, 0xbedc37863cd6ab2fU,
  0x3eccb849bea768e6U, 0xbeaeb6e93e30d8a5U, 0x3dfaa1853e7fd28aU, 0x3cfb9d3ebd23e235U,
  0xbed0a765bd4074b7U, 0xbe0e3849be169439U, 0x3eea69b4be34a8bfU, 0xbeb961e2bd286d73U,
  0xbd7f62ccbdc0af5cU, 0x3e54b1bcbe0c7075U, 0xbeb07b6c3d326430U, 0x3e87865cbdb4d90dU,
  0xbeabe3aa3eab5294U, 0xbe2906b63dd2004fU, 0x3e802deebea850b1U, 0x3e59bfdcbeb6e2f1U,
  0x3e8a916d3e26df27U, 0xbe48ec4f3e8faf1cU, 0xbeb823143dddf5e2U, 0xbe636f29be9135cfU,
  0xbef0b634bec26d27U, 0x3e2e3aedbec20d78U, 0xbe5883813e9f1851U, 0x3eb2a7193ee61958U,
  0x3c88e7403efa9eb9U, 0xbed815ecbe2aff0fU, 0xbd089d55be131fe8U, 0xbcaa28953e4f884fU,
  0x3e7db2253d20db07U, 0x3dc212cd3e805eb9U, 0x3e933ccabef4a293U, 0x3e567c0fbd5d8d2fU,
  0x3b03853b3ed44fc6U, 0xbe430e7d3e11f316U, 0xbd1fac533ecfa9fcU, 0xbe0092d73e810a7fU,
  0xbd6369d93e94fc29U, 0x3e47b8e0be9ea23dU, 0xbb8155023d983e79U, 0xbd0cad44bdfadb83U,
  0xbd3050813e5d2760U, 0x3e32c9fd3e4f0cabU, 0x3d856530be8708f9U, 0xbca886e43f04152fU,
  0xbefe5a4e3e38704dU, 0xbe87827ebe62382aU, 0x3eaa603bbd4f2606U, 0xbedbd6c4bf0ae615U,
  0xbda2d7823e67594fU, 0x3cea0bdf3eaa84e6U, 0x3e0042713eccd2f8U, 0xbdc893a73e5d121fU,
  0xbde110b3be370e8dU, 0x3e53cec03e8f413dU, 0x3e773ae8be348b55U, 0xbe236c0d3e02564bU,
  0xbea9df903e0eeab3U, 0xbe27e87e3ec7b631U, 0xbccf63f33eb23838U, 0xbddd03613da3035aU,
  0xbe62ccf9beb86930U, 0x3dfc56f8be1fec59U, 0x3e932d6cbf149c44U, 0xbcea58f3bc31751aU,
  0xbe536154bdae646eU, 0x3de8f39e3e48d5e3U, 0xbd4180663dc65508U, 0x3cfcd2b0bebb78dfU,
  0xbef5f44dbdf23fedU, 0x3e96ac063e9f367cU, 0xbea837263eacea76U, 0x3eaf9a3839c1c8b2U,
  0xbe3c0b77bdcc9e1cU, 0xbea469543e954248U, 0x3e772d243dda608aU, 0xbeeba04bbcd4cfe4U,
  0x3e802173bdc7af06U, 0x3ee4b7a93d727885U, 0x3db465fd3ec2d9cfU, 0x3c52b063bdd96a75U,
  0xbe26ed0ebe37c7f7U, 0x3eaded593b9025f6U, 0xbcc2e8a2bd115e83U, 0x3e140484bec0e70fU,
  0x3d06fb00be4c2f32U, 0x3da8068bbe8288b2U, 0xbea6d9343dda6262U, 0x3e55ef233db71f29U,
  0x3ec54045bd42408bU, 0x3e38ebfdbe8a1777U, 0xbe0de17bbdb10839U, 0xbe6466f1be84c2cbU,
  0x3a9b9c283e5a3066U, 0x3e346b253e08a041U, 0x3e3921adbd210e8fU, 0x3db298c03e963a47U,
  0x3e54a808bef6878aU, 0x3e33f7f5bcf07d41U, 0xbe8578fb3ea53812U, 0xbe43850e3d468e53U,
  0xbe0de8673e22f51bU, 0xbd0436923ce7c624U, 0xbe421ee0bcb1f09cU, 0x3f1f69913e790fdeU,
  0x3d1fce1d3e582cdfU, 0x3e82ddd5be8dfe1dU, 0x3eb286583eff700cU, 0x3b802734be90a020U,
  0x3ccaefbe3c5c62d9U, 0x3e05c12abeaa2de9U, 0x3c0175ce3de5cd86U, 0x3da466d4bded46e1U,
  0x3db5d2f1be7084c6U, 0x3e0d714c3e2df143U, 0x3b134e70bea83d48U, 0xbefb98f0be15b8c2U,
  0xbe1c797c3e77f358U, 0xbbacab84be3ef6c2U, 0x3d8429bd3e8bf74aU, 0xbe4d33443ec3849aU,
  0xbe6763ff3e2e0f31U, 0x3ec84e7e3e82fa11U, 0xbd2c8d99bf040a8dU, 0x3e25b77d3dfb76b8U,
  0x3eac7aa9be6e6642U, 0x3e2647ebbdb5e704U, 0xbe7177ee3e2f5577U, 0xbe814993be40c244U,
  0xbe60c5fe3ea6803aU, 0xbeb1a490beaaa906U, 0x3e663de13ddcf1ecU, 0xbe8bec22bdd1bcdbU,
  0x3f08ac35be96b25bU, 0x3d8c72d53e2502d8U, 0xbc791e733e24079aU, 0xbebc356e3da752c0U,
  0xbe1ff45a3e3be8bfU, 0x3d99a117be18dfedU, 0xbdb411e6be8b061cU, 0x3e483adfbd3f6b94U,
  0xbe9f1d263e2c04bdU, 0xbe130908bd0531d0U, 0xbeabc23e3eb5e5dfU, 0x3eda3204be92a9b1U,
  0x3bdda109be42c8d4U, 0x3d39bb143e60ae9bU, 0x3d990bdfbd0c94c5U, 0x3ee21ae3bd0a9f2dU,
  0xbe46c1a2bccfcb5bU, 0xbe0769b93e817a0fU, 0x3eb84b8dbe495c06U, 0x3d82a819be91b2e1U,
  0x3eb19c17bdc48e35U, 0x3ee8799c3e43d735U, 0x3e45f0cebedc3bb1U, 0x3e85b0fc3e104216U,
  0x3e57e4a1bbb487e0U, 0x3e5ae0ae3e56c17dU, 0x3e9e307bbe44a1baU, 0x3d5c2cabbe46c3fbU,
  0xbc4bb1d4bb25dc62U, 0x3ec85157bd9d67cbU, 0x3e05a597be3cc96fU, 0xbd8f34573e27c416U,
  0xbc79f5703d9e903eU, 0x3e62a33b3e9a57deU, 0x3daa641f3eae9952U, 0xbdc138dbbcbc7afeU,
  0xbe5b78e9bcb7b021U, 0xbc081cd5be259c77U, 0x3e3aa0623d0d9ffbU, 0x3e9d620ebe0ca2b2U,
  0x3e042127bed76d40U, 0x3e264196bebaf22eU, 0xbe99970a3e35551dU, 0xbea3f128bc5fade2U,
  0xbe1153203eb23c05U, 0xbea2d4adbe531a2bU, 0x3f1339f6bdc41b0bU, 0x3ef3a1153dbd7226U,
  0x3e4767b93ed912e0U, 0xbeca6b7b3e28d386U, 0x3eedaf3dbd26462cU, 0xbe263566bd32e1d8U,
  0x3d8e616fbf2c7e88U, 0x3ed11f933ebe5c2aU, 0xbd92f53cbd0f2228U, 0x3bf7d6b33e91bd0eU,
  0x3ec3afa1beb941d6U, 0xbe87fb923e05e02cU, 0x3d745461bdabb41bU, 0x3d209e5cbd49e52fU,
  0xbe3597dc3e04f509U, 0xbd26931dbe9a1192U, 0x3e928299be0f3aa3U, 0xbde49a2a3e78c1b6U,
  0xbeab2686beb5f664U, 0xbe739ea4be7d9c57U, 0x3e09856bbd7ae1a9U, 0xbdbdf8aabe29d759U,
  0x3f32e4dc3ebbc0efU, 0xbe07d245bd94d210U, 0x3e01da213eed220dU, 0x3eb7fc493e9cfa41U,
  0xbe606ae13e71fe67U, 0xbcf087853e014bcbU, 0x3de761e73ebe0318U, 0xbeaaaec13e86f439U,
  0x3e5204c93eb2d6b2U, 0x3e593eadbda24553U, 0xbe7b6c6d3e0bdb39U, 0xbe1acb54be750ba3U,
  0xbe973dd7bdd4d831U, 0xbe3c7f34bd430450U, 0x3eccb8013da0df54U, 0xbd16cc903e9de134U,
  0xbd6b5bbb3ee9f38cU, 0xbe1fc7c5be6ff633U, 0xbe5267743e33a3d6U, 0xbdb1872d3e259262U,
  0xbf35589bbed5b9d0U, 0xbee378003f10cee5U, 0x3e5e5b3b3ce2d430U, 0x3f1cf37c3b6e2fd5U,
  0xbea71bd83efb7b1dU, 0x3f07da06bf6b3513U, 0x3e650d6c3e17056fU, 0x3f23d42a3e217479U,
  0xbf67cc473e836334U, 0x3ec172ad3ef04bbaU, 0xbbf38ad0bf33419cU, 0x3e76f36c3e801327U,
  0x3e1a84d2bf61ef06U, 0xbeacb4783ef2bf7cU, 0xbe8d4303bf01ec2eU, 0xbe9f1d3dbe139cf6U,
  0xbf07543abe0abe10U, 0xbdcf7bfd3ec644acU, 0xbeb61e6b3f2c7cdcU, 0x3f8c50fabb98bd8aU,
  0xbf4bac88be828df0U, 0xbf67e971bedbcf77U, 0x3ec73ae33e7404ebU, 0x3efa6fac3e4181ddU,
  0x3d951546bf34846fU, 0xbf39300bbeb8c408U, 0x3f2b9c663f4deaf6U, 0x3f512dd1be612eb9U,
  0xbebe69c43eedb58fU, 0xbf293ff0be05910eU, 0xbeeacaa0bee2d3d2U, 0x3e2049e0be55f5ceU,
  0xbdbf69473f0b511cU, 0x3f21f6e93f19794dU, 0x3e6eb9163f55a9e3U, 0x3ece02403eef15f0U,
  0x3e5c9c61be2b8dc9U, 0xbf22e551bf03c471U, 0x3e63584a3f866318U, 0xbe5c6edbbd915dbaU,
  0xbd3e6a3d3ee69d87U, 0x3ed02216bedc63c2U, 0xbde805e9bcc73167U, 0x3ed3c2433e715dd3U,
  0x3e8cd54cbf08aa5fU, 0xbeab50b73f283479U, 0x3e51e79b3d91efffU, 0x3f08e36abecd39e2U,
  0xbe69d0883f2d9e3fU, 0x3f8dbde7bdcde4e9U, 0x3e055bec3f5b310cU, 0xbdde371fbeba40f3U,
  0x3ed3c9a03cea6512U, 0x3e9c7eba3f0026a1U, 0x3efd6d1f3f076164U, 0x3e9a10883ea33d9eU,
  0x3e495402be07562fU, 0x3f4c28aabe6cb836U, 0xbe4668b5bf2e3ae1U, 0x3d9be5f7bbffbf49U,
  0x3e9e51ee3e9a947bU, 0xbf3776803f95c4deU, 0x3dc5ad6dbd54bb7eU, 0xbe22b8c03e56a6aaU,
  0xbf5a865fbedcb6d8U, 0xbf0d1a913e2263f4U, 0x3e74d89dbecda378U, 0xbfa95c7dbf65d7e8U,
  0xbf3091f1bf0521e1U, 0xbe29b9f2bf395683U, 0xbef7e5bdbf315de7U, 0x3db58fdcbf655b94U,
  0x3d6069debf41848fU, 0xbf87db9e3f38f52fU, 0x3f3b4f87bdee6fe0U, 0xbef5b1753e91441aU,
  0xbf27ac6bbb055715U, 0xbe1184d63f3d2370U, 0x3f78027d3e906d0fU, 0xbef8cc55be8d5d4dU,
  0x3e5b8e0d3f00d7f8U, 0x3eff546c3e846867U, 0x3eb8b216be890882U, 0xbd4429b73ea3e0d0U,
  0x3e3d2c113f23fdb7U, 0x3f0f9766bf27c0f8U, 0xbf024d11be8e01c7U, 0xbccc378abe6a4a91U,
  0x3d067f5d3dacebcdU, 0x3dffd5c0bedf62e5U, 0xbe1047a73f528c14U, 0x3f7ac114be1b6866U,
  0x3eff0b24bef875dbU, 0xbe9f910c3f16b327U, 0xbed0308f3f0f955cU, 0x3e5ab2983dd7ca2cU,
  0x3ec9dfd3bf122ca0U, 0x3e7414513e4895c5U, 0x3f6b7836beee8407U, 0x3ddfdc33be9788b3U,
  0xbf57a7d0bf9828c8U, 0x3e8b57ca3fa46da1U, 0x3d960b06bdf93e46U, 0xbf5ea713be0b71f5U,
  0xbf6cdd863caafb61U, 0x3f223cc2bf2322d8U, 0x3e7f30bbbebe96c3U, 0xbdbefcc93e37a12bU,
  0xbe1ff0a33f2340fdU, 0x3ec8938dbe934195U, 0x3cb83d6e3ea907cdU, 0xbec623dcbf0d0604U,
  0xbeed0397beaeaf64U, 0xbec93e053eb0095fU, 0xbed792dfbeffa5fdU, 0x3e5469b43f43f027U,
  0x3f44acbf3f53e0cfU, 0x3f2b64853df6d03aU, 0xbdef35afbe547654U, 0x3ebc8a9a3f067e85U,
  0xbf22519abef19eebU, 0x3edcf5413f107315U, 0x3ee17766bf15f2a8U, 0x3ea47aff3e1b2d35U,
  0xbe9e8e46bcb9c33bU, 0x3ec892ec3ebe20beU, 0xbefa9c4bbe9a92c9U, 0xbe9fc7cc3e848b4dU,
  0x3dfcaa6cbf0cf1e3U, 0x3d98896b3ee81797U, 0x3f803e30bf8218dcU, 0x3dca14bbbea5cde0U,
  0x3e088e533f6c4633U, 0x3f2d96febf140499U, 0xbdc50948be1306caU, 0x3f1b12cdbe123059U,
  0x3ec57255bf4af2a5U, 0xbf580c0c3ee18766U, 0xbeeb027e3ec9746eU, 0x3ee882233f0e8bc5U,
  0xbf0a17c63f4a36aeU, 0x3ee44552bf1ad49fU, 0xbe1d506e3f09256bU, 0x3f3021ab3e8bf137U,
  0xbe1e9f73be5a5ac7U, 0xbf302e693eb7fc29U, 0x3ece22ae3ea337bdU, 0x3e3f80113e2b56dcU,
  0x3f1059d23eee6212U, 0x3e65a60ebe6edb22U, 0xbe73923c3ea4916aU, 0xbefab5793d953c8dU,
  0xbee263a53d499abfU, 0x3f0e64ebbf7b8941U, 0xbf0be0f4be815438U, 0x3e9c479f3d6e7604U,
  0x3df13c543ed35539U, 0xbf1c92063f0e0323U, 0x3f9696233d65a68fU, 0x3e12821cbf5e74c2U,
  0x3ef008e7bd836e48U, 0x3c07bf4cbd6baa74U, 0x3d19ccb4becc496cU, 0xbf578f9abe7f0c1bU,
  0xbea3b06bbf2e7b5aU, 0x40043a2bbdba278dU, 0xbeaf9ff53f8c7105U, 0x3e4933febe8277b4U,
  0xbe6eb9593e245c8eU, 0x3f6d8c743d45a917U, 0x3f74b90cbec5bf27U, 0xbd1e1158bf0cba34U,
  0xbf3cff483eb25242U, 0xbe448c91be0096daU, 0xbf0d6907bbd42110U, 0xbec9c1ab3f021f79U,
  0xbe3aac93bd0bbd1fU, 0x3ea2a145bc69d68cU, 0xbe268c213da0887bU, 0xbecc743b3e56ffa0U,
  0xbd1325a3be43e7b3U, 0xbea57d13be8a36c2U, 0x3e6f5becbe05d2fcU, 0x3e6d0788be9b1bf3U,
  0xbdd4e5e1bf017a21U, 0xbee204953dca38e7U, 0x3d9be201be0d2efcU, 0x3e0e094ebe0ffd63U,
  0xbe6802e13c0dee42U, 0x3c86c0243bdb6416U, 0xbe682fa93dd5c749U, 0xbd934f1fbe878c2dU,
  0xbe4130acbe595ffaU, 0xbd3d6c76bd5c524eU, 0x3e3c52c43ec599acU, 0xbe1b125e3d75c0f4U,
  0x3ca04d59bdd9a885U, 0x3e3e98863e760f94U, 0x3d952fa43e19f489U, 0x3e9af6b83e977526U,
  0x3ca91bcabe16c249U, 0xbe3e10913c4db18eU, 0xbe8102f93ea66ebcU, 0x3dc5b3b3bd4aebdbU,
  0xbdc1c439be264ac9U, 0x3c3371c5be5810c1U, 0x3e4cb9bd3e13db4dU, 0xbe7062f4be8f360eU,
  0x3e9929babe160cb7U, 0x3e9eeac1be46a2e6U, 0x3e964514be08620bU, 0x3d9ba3b3beadb03aU,
  0xbe21e977beb4f8e1U, 0x3dbba3fc3ec335ddU, 0x3dc7c19a3d2b55acU, 0x3be614303efd8f00U,
  0x3e087089be47d3d9U, 0xbd65b3eebeab2441U, 0x3e9e9d4dbe9696e7U, 0xbeab3f2e3e16e862U,
  0x3e7b4273bece5b16U, 0x3e0b6145be9423e2U, 0xbe0acc063ec6fc51U, 0xbda50fd4be41c0dbU,
  0x3dc34a76be99ffafU, 0xbd36441cbe6a2308U, 0x3da977bebed9c391U, 0xbe1d8475be1ff21dU,
  0xbe6be5283e657aa5U, 0x3ea8621abe3c6405U, 0xbeb80281bebaec90U, 0xbd8b2dd1be64af6aU,
  0x3e51f1973e8fba4cU, 0x3e8f04c93e3614e4U, 0xbdc79733be7c8314U, 0xbe4a84d43ee0f2cbU,
  0xbd14170dbead894cU, 0xbe1380e93eacb909U, 0xbe04e8c2be19d1e1U, 0xbdef2a08bd24d2deU,
  0xbe04f1a9be8afd02U, 0x3cadd97b3e24c7dbU, 0x3e73c283be1d9c1fU, 0x3dd82c6cbe0b35d2U,
  0x3e33f0393e2b0537U, 0x3f034740bca4661aU, 0x3e8236d6bd539c92U, 0xbe1a732f3e14ee48U,
  0x3e1ecd1ebe57ad46U, 0x3e325207bba55e58U, 0x3e1cd7503eb05bb3U, 0x3d000a8c3e24ffe6U,
  0x3dd8ff163e93306bU, 0xbe1aeb06be00e002U, 0x3e9cbe5cbeab362bU, 0x3de97518bddf3f6cU,
  0xbdf07797be53ea2aU, 0xbe39dd16bcbd69f3U, 0xbc522e6bbc8ab5a3U, 0x3ce5cef5bd93f19fU,
  0x3d42fc01bcbb65c7U, 0xbd897e243bd2fe99U, 0xbe20f62b3de8fdd9U, 0xbd02933d3e02df91U,
  0xbd917885bdb47d68U, 0x3bf453d13c564a5aU, 0x3d33a07dbe6a3e4cU, 0x3d360506bd87573eU,
  0xbda9b0393e13b8e6U, 0xbdef1bda3da9cf95U, 0xbcf16f84be8463baU, 0xbd71d2c53bcafea3U,
  0xbdc49fbcbe9df306U, 0xbe7083aa3e8dddedU, 0x3e5a1522be28e206U, 0xbed506f6bdf98227U,
  0x3d90bc7d3e877f8eU, 0x3e1f24c13ddfe9caU, 0x3c9bc5203e446bc8U, 0xbc1060e73d853cecU,
  0xbea064b9beee1306U, 0xbe05857cbe5abfddU, 0xbcd91f523e9436deU, 0xbe9d22b03e5b1827U,
  0xbe9d44343d72d9c1U, 0x3e90d4473e1bedd5U, 0x3e58b1a3bc6e8cf1U, 0xbe2362033e4c88c8U,
  0x3efc50ebbe9a31cfU, 0xbea1dabd3e3a1de0U, 0x3e525e7e3e2aac2fU, 0xbdeb428fbe978c20U,
  0x3edd07d4bdfb9118U, 0x3e611395be9cf8d8U, 0x3e807719be81547eU, 0xbde79a9a3e8371b4U,
  0x3e18302dbc9c7684U, 0x3d8991783d93d80aU, 0x3ee4484dbe301d08U, 0x3ec888af3e419415U,
  0xbe473dde3dc69379U, 0xbe4015f43e26883aU, 0xbd9bffe53ebef1ebU, 0x3e7d5bdf3e181690U,
  0xbe992cd93e6116ccU, 0x3e5de5343e94c369U, 0x3ea1b2e5befa6ed2U, 0x3dce68153e6c38f9U,
  0xbdbe1fbabeaca12fU, 0x3e23d8d53e8dfa15U, 0xbe1d30c03e0f5206U, 0xbda055a73e682c6fU,
  0x3e162ddb3e030f4dU, 0xbcca8dc1bd3c01f8U, 0x3c2183a23e25ff34U, 0xbe418c65bd610835U,
  0x3dfa4b393e35e616U, 0xbebe9c31bd612e3dU, 0x3f0eff67bda18d84U, 0x3e24f171be696407U,
  0xbe85695d3ddabd59U, 0x3e68906f3c94f167U, 0x3e226995be1a7cfbU, 0xbf012b8bbe537e8aU,
  0xbea0cea63e8f8b69U, 0x3e91566dbdc694d5U, 0xbdd20ffc3eb21113U, 0x3e22a4ee3e5522d7U,
  0x3e29d4d4beb71e71U, 0x3dc67645be851b32U, 0x3d8d095f3d8b3d17U, 0x3cf6efca3e624ad6U,
  0xbc4059aab9c526d3U, 0xbe517eb33d49a2c8U, 0xbd0bcf22be1211feU, 0xbcbe6ef63e11a7b8U,
  0x3e03205abd94493aU, 0x3d2b0b7dbde816c7U, 0xbc230832bea52c9fU, 0x3d1b31bc3e3fa76bU,
  0xbd11dec43d34df0cU, 0xbd140204bdb3e38cU, 0xbe1431e1be9e22f1U, 0x3b66b0ed3e0c408bU,
  0x3c7494483e490620U, 0xbe856f00bd551684U, 0xbe55ea8bbea84ebfU, 0xbe8c082abe632c36U,
  0x3e8d73dd3da72be9U, 0xbe92a1883c0fa4cbU, 0x3e4b7ba6be4c3ac7U, 0x3d625fb43d5103aaU,
  0x3e033c0ebe22dbeeU, 0x3dde70eebe94a92cU, 0x3e8d75a7be096dd9U, 0x3e550a063e0c888fU,
  0x3daed0bfbd3cd263U, 0x3f1d4309bd2b5afdU, 0x3d73845f3e12854aU, 0xbf03a2783eb36fd3U,
  0xbccb3173be9e8c53U, 0x3e1ff125be328358U, 0xbcbefd66be4c4ea3U, 0xbe7315133ee20432U,
  0x3e750f923d7c0a49U, 0xbe7e287b3f035243U, 0x3e0f35e13ddc060eU, 0x3e084ba93e497c40U,
  0xbe612afe3cce7ca0U, 0xbdb026953dc38f11U, 0xbe5e5dd73e1c45faU, 0xbe178096bd65665aU,
  0x3e95fa733e7732b4U, 0xbe969888be2c3d74U, 0xbe8ffd4e3db59703U, 0xbe81b61e3ec30f57U,
  0xbf186d373ed8defaU, 0xbd9efea9bdfecba9U, 0xbd5da8aa3e97274cU, 0xbd972b603e91ca68U,
  0x3f04a7043dbc33d4U, 0xbe7d1abebde81359U, 0x3e294c6e3dd99f2aU, 0xbe9e2b01bd8a5716U,
  0x3e039468be101c15U, 0xbe12977dbd83e5fdU, 0xbe2d288fbe743f7eU, 0x3e4a567d3d9ad8bfU,
  0x3c94b012be4cd681U, 0xbe715ed8bd05859cU, 0xbd02bf1bbd405b0aU, 0x3e0fda10bdbc2fb0U,
  0xbdd8f7423de67c1aU, 0xbd6d0b0e3dc96183U, 0x3d1042ac3c4e3f66U, 0xbe80b19d3cc27116U,
  0x3d63b2e63dd3ce6eU, 0x3cc778f7be4f4446U, 0xbd7d6862be3a1831U, 0xbcdb0b5a3e092ef3U,
  0x3dd7663b3e28580aU, 0x3e72aa06bd36f0b2U, 0xbeb3ec05be698f69U, 0xbcf65b0c3dfc27eaU,
  0x3e99a4c93d2d053fU, 0x3df6fc6c3cb564b4U, 0xbe1b7991bc884c83U, 0xbcb9177b3e11f852U,
  0x3da13c633e4e1d65U, 0xbe870001bd8e954bU, 0xbe9cc0333e871dc9U, 0xbebe7e563dbcd993U,
  0xbe506ce0bec32f38U, 0x3d6a764cbe673bc8U, 0xbdcec97b3e6a6260U, 0x3e17f2453e3434f2U,
  0xbce61de13e2b5af5U, 0x3e2a5188be2ca690U, 0xbe21bd173ec7ff6fU, 0x3e5378643c104004U,
  0x3d77baa93ed16643U, 0x3ec77251bebb907aU, 0xbd996daf3da638c4U, 0x3ea738653d999c95U,
  0xbdcd2dd0bea0990aU, 0xbe08c357bdf8613cU, 0x3e13052cbe734dfeU, 0x3d8f58943e7e3b46U,
  0xbdd040d13e5162beU, 0x3c01b2b2be6c93fcU, 0xbea136aa3eb18f8cU, 0x3e0fc6783e5b27e2U,
  0x3e4fc6a43ebcc7aeU, 0x3e1875ff3e36dad9U, 0xbe9d8ba63e47f17aU, 0x3ca5ea213df238b7U,
  0x3ee2af6cbecc9f4aU, 0x3d8c9788bd11a025U, 0x3e52da08be1b4e51U, 0xbdf8da363e1b6c27U,
  0x3dbbe3f43ef5149cU, 0x3f213c993e1d6c08U, 0xbe7f84d2be203c82U, 0xbe28a8493e5e7863U,
  0x3dbd611bbea5e5a4U, 0x3e84ff59bf0453ebU, 0x3eaf64dfbe0c6196U, 0xbeea62c6bd6c24a9U,
  0xbe675a77be31520aU, 0xbeb3b336bd3515d5U, 0xbda4310abd5a5d7eU, 0xbdc243b3bec9c663U,
  0xbd0107313eb4c540U, 0xbebce045bcdea43aU, 0xbec22b90bd83a38bU, 0x3e87599abdfb9d03U,
  0xbe226fad3d585ce9U, 0x3d1585f9be2666e4U, 0xbd6f73a13eb0530fU, 0xbddfd96ebea58df8U,
  0x3e2b0b103d797943U, 0x3df83af93d394163U, 0xbca89a9ebe9a26e8U, 0xbe1299063edd5cd2U,
  0xbe2340aa3e08813eU, 0x3e39fff0be9abf11U, 0xbe2eaf6bbe56bc73U, 0x3cb9c0a43e2301afU,
  0xbd38b4c1bd0c6ea3U, 0x3e5e8515be49108dU, 0x3808e1953eb72ea1U, 0x3e82117b3e855edbU,
  0x3e631ebdbe5d41abU, 0xbec132d53be18d91U, 0xbdb40f8c3dff391aU, 0xbdbd585bbd63508dU,
  0x3d428b7bbd8019ffU, 0x3cc616af3bd347b8U, 0xbe9fdaaebea35783U, 0xbe4a5607bee89d58U,
  0xbd1c8508bed341feU, 0x3e81c0243e095c49U, 0x3e62d01bbeb2776bU, 0xbc218314be8ea658U,
  0xbe5d8142beb33047U, 0x3e5105ebbd866b8cU, 0xbdc3570d3e525ad6U, 0x3e7312e43e2a2aedU,
  0xbd8e61333d966ae9U, 0xbdec28ae3d6816cfU, 0x3eb917553ddfddc1U, 0xbd48b311bdb8b42eU,
  0x3e520d6cbcc415b2U, 0x3e48e3fcbec66529U, 0x3c3c3f0ebd8b47acU, 0x3e98578a3da533e1U,
  0xbc5e6d28be0c3deeU, 0x3ec7ca703e2b66d7U, 0xbc920c1cbe593feeU, 0x3de276e5be33c1acU,
  0xbe1f0378bebbff56U, 0xbdc17e4a3df84aceU, 0xbeb5a6333ed653adU, 0x3e398c3c3eb6d6eaU,
  0x3cd957693e153809U, 0xbe13138d3c77d61dU, 0xbe5d38debe463a2dU, 0x3e40bf013e3490acU,
  0xbe9965da3cf5936aU, 0xbd9b513cbd1ec28eU, 0x3d323026be2790cdU, 0xbe63c8babd19ceedU,
  0xbea77a533da21c32U, 0xbea0ddffbe0268dfU, 0xbe33ada0bdd63f40U, 0xbc5f649fbd8fd731U,
  0xbe01abb73ec43897U, 0xbeb54033bbf4fd8dU, 0xbec865ebbe3b0ccbU, 0xbea58a8b3e4ef2deU,
  0xbdb31fb93ee01c55U, 0xbe87b414bdd98d30U, 0xbe6e48863eaa9ae8U, 0xbee80bafbe794c20U,
  0xbec6e97a3eaf9ebdU, 0x3edffaf6bc9e1153U, 0x3cace7f23df08551U, 0xbe1019a53ed3aab4U,
  0xbd82b2d6bda447e0U, 0x3dc7f6a03d8a822dU, 0xbd1543dd3e628d7bU, 0x3e0f5d2cbdf2fae9U,
  0x3e08df24bec2fdc8U, 0xbd557bea3d42779cU, 0x3ebd8094be3916baU, 0xbe2951db3d7f9ed8U,
  0xbe3437c03cef9eecU, 0x3e658b41beda16caU, 0xbec715ee3de35452U, 0x3e07ea5fbe1e8f90U,
  0x3ec14807be4b5244U, 0x3da5a715be243d3cU, 0xbda6ffc93ea5e9f5U, 0xbe5ac1dd3e3e7d78U,
  0xbe3d8e39be27752dU, 0xbc2c88b9bde98e11U, 0xbe580adebe0039f7U, 0x3de848d5bdf6d573U,
  0xbe318db3be91f4c0U, 0xbd9cdc943e6652b2U, 0xbdca77653ea3ac36U, 0x3bad8127beab524aU,
  0xbe2b3cb93e30d159U, 0xbe18cbb2bdb1932cU, 0x3d2f59d73e509035U, 0x3b7fce8b3dcfa794U,
  0x3d218c413e7dbb2aU, 0xbeb0c346bdd89643U, 0xbdfa08333e0ff5baU, 0x3e79ad493e376954U,
  0x3e02ce96be780e06U, 0x3dca4ccabec57e5eU, 0x3e6ff3773df5e2a2U, 0x3cfac6413ed72b93U,
  0xbe99361b3deced7cU, 0x3d8746fabdc9900cU, 0x3e2058913e2c91dcU, 0xbe80aeffbe390ebbU,
  0xbd9b526f3e940b03U, 0xbe4739353e934fc5U, 0x3e5cefe1beb12428U, 0xbee3f1e6bdd8f006U,
  0xbe54ab48bdc65415U, 0x3d9010e5beb844d7U, 0x3e996c62bea4bca1U, 0x3d5f65293eabe3c9U,
  0xbd92c0dd3c53c1c3U, 0x3e3dd3ee3d5ad7b4U, 0xbd8c3087be5f096aU, 0xbe6652c9bdc00effU,
  0x3eaa58213d4a0a8cU, 0xbde2b0c1bdd2e676U, 0xbe2f5ab83d6b8a5bU, 0x3dc14a7d3ef401e0U,
  0xbe0d47a93db233d0U, 0xbe11735b3db34026U, 0xbe06b0a93e959757U, 0xbdbd3cb03e6cfd6fU,
  0xbe283332be0e3923U, 0x3ed65debbda3521fU, 0x3e0fd3323ea46c69U, 0x3e9fe4103e8f7ff3U,
  0x3d9769593e81c2f3U, 0x3dcb02dcbe99c2f0U, 0x3e0f02b3be158639U, 0x3d62e43a3d9e3c3eU,
  0xbd3110013d132276U, 0x3e922fd9becf2fcdU, 0x3e42d792be135d61U, 0x3d8ff1d73e813b1cU,
  0xbb1d6244bd348ef2U, 0x3c2a45d2bccbeb15U, 0x3e484e51bbe46c51U, 0xbe67ccad3de0d264U,
  0x39616c743e23612eU, 0xbccff42ebe4f9fafU, 0xbd8d1a053dd90993U, 0xbe6345c1be809d86U,
  0xbe6986df3d927299U, 0x3d2bb9edbedc6d2bU, 0xbd8fd0d6be7fa931U, 0xbe1d07dbbd6d133dU,
  0xbcdf3386be826ac8U, 0x3eb725dd3e6c2d31U, 0xbe47fd43be2ed180U, 0x3e2f5ad3bedff574U,
  0xbe43c2243e4cb5daU, 0x3e5eb5733eaee89fU, 0x3d18be5b3e165947U, 0xbd50a91b3eabb86bU,
  0xbd7f7408be7c81f0U, 0x3e625f2bbdcbb12aU, 0xbe04c0763e9cf40aU, 0xbd6cbe87be7cffa4U,
  0xbe05df20bd0e9c95U, 0xbe70a0ec3d89dd76U, 0x3e024153bddfc419U, 0x3e8b46643e480287U,
  0xbed359dbbdac081aU, 0xbe1860323d2982acU, 0xbcc9773abde1fa7aU, 0x3dfd04debe919ad0U,
  0x3de1c86fbe686c09U, 0x3e891aad3e1ce741U, 0xbea309713d7bb2aaU, 0xbe188728bdd85408U,
  0x3e52f8bf3e95a776U, 0x3d0c9396be575595U, 0x3e7c26753e8974d0U, 0x3d0c1c12bea22e10U,
  0xbdab76473efb576bU, 0x3dc98670be8614e3U, 0xbea215e9be4d82c8U, 0x3e73ea45be435993U,
  0x3ce28630be738ebfU, 0x3e708bcf3e84ed9bU, 0xbd962e323ebbc123U, 0xbe9142c9bd161744U,
  0xbd2251313e7e5a08U, 0xbd3d87f0bd1b6788U, 0x3e4865af3eede570U, 0x3e9fa4e6be02f741U,
  0xbd8fe0603dc8f449U, 0x3d89ee233e9ba830U, 0xbe5c4053bd752de6U, 0x3db7b9793db348e5U,
  0xbe0e9c3f3de0246cU, 0xbd97e9acbeac82a4U, 0x3e5d99533e7f9bffU, 0x3ec7ce1a3d22e454U,
  0x3e1ed84bbca66971U, 0x3e06dc893dd798f0U, 0xbe7617413e9acc74U, 0xbee0f0bb3c3350d7U,
  0x3e1576c1bce88fa5U, 0xbe63c0b63e44360eU, 0x3ea98bbdbe6a5a53U, 0xbe8433643cc4657fU,
  0x3dac828e3bb12c14U, 0xbd04f9c53934ab1eU, 0x3e205a65bf20e065U, 0xbe8003f5be43bdabU,
  0x3e8e93c83d2eb697U, 0xbd9f0167bdb11d44U, 0x3ec249663d90baf6U, 0x3e88a33c3ee0a30eU,
  0xbc629f643ed0fc12U, 0x3d97b3f83e42d54aU, 0xbb6dfd7cbd8a5dcfU, 0x3c5e5e183e9c4933U,
  0x3eba0681bcaf96adU, 0x3d61dc803dbc55f9U, 0x3e85c091beea757cU, 0xbde0b323be80e8b3U,
  0x3cdef354be4091ccU, 0xbe02355bbeb2ca5eU, 0x3e283464be9f7144U, 0x3e9721983e9b952eU,
  0x3e3843ddbe89fd8fU, 0xbe8587cd3d070fc9U, 0x3eac03f13e4a2afcU, 0x3e278fcb3e2b210aU,
  0x3e68a8d03e98d995U, 0x3f211cd9beec024bU, 0x3e884ff6be0f73e2U, 0xbe54807ebd8238d2U,
  0x3e8a7d233e09afd1U, 0x3aacb336beb131c2U, 0xbe7aac97bc88fd7eU, 0x3e1256bbbe45ea7eU,
  0x3cf66a563eaee2f9U, 0xbd4afff0be0528a3U, 0x3d9d27c33dcfc1a9U, 0xbec378103d925477U,
  0xbe26b7033edc2491U, 0xbf0e5fab3dbf039aU, 0x3e20930abea97e02U, 0x3e8531d13ee403b6U,
  0x3d05cd333ea0cf18U, 0xbe7f4884be1cf6e6U, 0x3ed79def3e658d2cU, 0x3e975276be5097aeU,
  0xbe30082fbf1cd363U, 0x3eb036ec3dfc6fc7U, 0x3e301021bd94aec5U, 0x3e0b0b2ebdb5b98fU,
  0x3eb73d1a3d5845e4U, 0x3ec1992bbe9bed9bU, 0x3e0893aa3eac138fU, 0x3e4d98dabdf4e5e0U,
  0x3de5af64be58ef83U, 0xbece32f43d447890U, 0xbe4dbfafbc6117dbU, 0xbd4c8169be1235dfU,
  0xbe7578963e618344U, 0xbc72913abe281f67U, 0xbda936e9bde00e8aU, 0x3dc8417f3dc41192U,
  0xbec45813bc122e9fU, 0xbe38a7d3be35a7a5U, 0x3db1d85b3f0d933aU, 0x3e752c8f3ed9534aU,
  0x3eca988bbe3f8639U, 0xbef503a3bdac1936U, 0x3da472a93c8a2bbfU, 0xbe8936a43dbceea6U,
  0xbdd540eb3cd142c8U, 0xbdcd83c1bde96d82U, 0xbe1079b53d7e71a5U, 0x3e453b2abe4433e6U,
  0x3e813ddf3dd92e58U, 0x3df97a74be0a4dd0U, 0x3e325bedbd1a7205U, 0xbe33ead53c9dca26U,
  0xbdcd73b0bebafa7eU, 0xbdd4635a3dea98adU, 0x3c9679963e254c6dU, 0xbe5095b5be2316beU,
  0xbdc03554be9405b5U, 0xbd7a961f3ed3ccd6U, 0x3e5d560dbdf3f43dU, 0x3df5d22b3e07e4b3U,
  0xbe1eafbf3e5a2cb5U, 0x3e8737253e20848fU, 0x3e1cfe673e1b6f44U, 0x3e3d97683d9e6ec4U,
  0x3e56e736bebdcf89U, 0xbecb3b03bd8eb1faU, 0xbd822c1f3ed0906bU, 0xbe2e24f9bd8c97ffU,
  0x3d47e4b7bd8dbdfdU, 0xbe08a073be7b6e61U, 0xbed16167bee58ca0U, 0xbea59b4cbe1e4d7eU,
  0xbe4afaebbdfb92c0U, 0x3ea85056bd078238U, 0x3e837770bd21c889U, 0xbdb6be02bdc4eb50U,
  0x3cc757babb019e28U, 0xbdf705d5be2bf437U, 0x3de9df6bbe2db0eeU, 0xbda770913e723782U,
  0xbdf44c66bd3bc615U, 0xbcdf0cc2bee6954bU, 0xbe81658d3de788bcU, 0x3e319bad3d0a120dU,
  0x3e9220bcbe892150U, 0xbe5111a5bea80a8cU, 0xbe0c86bdbd836a03U, 0xbe9e00503ec7b995U,
  0xbd45f0c53c8cea3fU, 0xbec70e90be27a159U, 0x3e7d70183db22092U, 0xbd2495913ece3b96U,
  0x3ec6c6463d52cf8cU, 0x3e8d26f13e98a655U, 0x3e9ac6463ec08027U, 0xbe239c57bf0fe0f0U,
  0xbe74afdf3dba5a58U, 0xbe05ce47bc5d75b0U, 0xbc924112bee01830U, 0xbde663753d79bfafU,
  0x3ed42dafbd86afceU, 0x3e0c34273eb3442aU, 0x3e3d96dcbe660bc3U, 0xbdf4ae3e3dd752a6U,
  0xbd9876553de3b0ebU, 0xbe39579f3db6f193U, 0xbde6950b3ee06e4aU, 0x3edfe48e3ead3987U,
  0x3e44a4793e055d73U, 0xbe9a9c87bdfcb88fU, 0x3e143a9cbc23e926U, 0xbe976789be657ed7U,
  0x3e29ef583d89d8e9U, 0x3d12ff10bddc4eacU, 0x3d0ece4d3e0df507U, 0x3e1db270bdd18e25U,
  0xbe7aeb29be1322f5U, 0x3e13e6183df12d04U, 0xbe9a8ff7bdb2d897U, 0x3ea1949a3ece55a0U,
  0xbe3249a13f093652U, 0xbe60d99cbdacf8cfU, 0xbed3afca3ed40b35U, 0xbef2d0213ea0291fU,
  0x3df837c63e802fe7U, 0x3e588fa4be080bbdU, 0xbeabc038bd182e8aU, 0x3e8d080b3e619cf2U,
  0xbdc08edd3b1c496fU, 0xbc60f77ebbd8f09dU, 0xbe0743393eb7cf5dU, 0xbe229428be99d82dU,
  0x3beae0bcbe42a2d5U, 0xbd387cebbe54ea91U, 0x3ec68c3fbe82aa4eU, 0xbe3a575ebe177b5aU,
  0xbe917a443c51da63U, 0x3cb80c233e43b345U, 0x3d01e4e0bd563066U, 0xbb7a2b4bbca0a021U,
  0xbe960ad6bdb2c3a9U, 0xbe4bef423e22b6a9U, 0xbcbe189dbe171ff1U, 0xbe350e1f3e1342dfU,
  0x3e981bb53dd96a02U, 0xbed5c7903d81675aU, 0xbe63f7133e19069fU, 0x3c6a4708be1bf7e2U,
  0x3e8ffe0abe83a519U, 0xbe7880b6bdbb44c3U, 0xbe8872193e93e7fcU, 0xbe2aa554beb633dbU,
  0xbe61f2863c2a1374U, 0x3e2722053e779263U, 0x3dc059ddbdf305dbU, 0x3ed1a859bdb7e319U,
  0x3e964443be72fa5bU, 0x3e42e4acbe567c64U, 0x3e02c4f93d26446dU, 0xbbf053903e8ffd93U,
  0xbeb13ec03e38b712U, 0x3b85e2933e111d0bU, 0x3dd9028dbdc65b0bU, 0xbdc265043e686618U,
  0x3e09e8b43e5c0177U, 0xbe853b573d345d5cU, 0xbe61d688be1e2fa3U, 0x3d28dd10bdddb97cU,
  0x3dd039463e6cbf1eU, 0x3de05d54be87973eU, 0x3de094f03e4404c2U, 0x3c010c1f3d8edaf4U,
  0xbe764b363d005302U, 0xbd68c282bd61542aU, 0x3eb79d72bc22d648U, 0xbe736686be9f4057U,
  0xbcb26a843e83d06eU, 0x3eaa6581bec943deU, 0x3e519eb4be79bcfeU, 0x3ce8c8573d3913eeU,
  0x3e457532be01b132U, 0x3e6a06d5bdfb475cU, 0x3e829b89be8f7ea4U, 0xbd6659f5be6809afU,
  0x3e7a8086be5fce01U, 0xbe6fcc273e335534U, 0xbe64085ebea4c960U, 0xbdc051a5bdb26fc9U,
  0xbf0abde93e63cfb2U, 0xbe1c866ebede1a13U, 0xbec9c567befefdcaU, 0xbdfe3de7becc6246U,
  0x3cbf83d5bdee0bb2U, 0xbd269945bea52691U, 0xbe7136183e77fb3fU, 0xbeccf9b03ecab687U,
  0x3e36e9a53eb57599U, 0xbecb4f2f3edcdebaU, 0xbe7117a83dc0b178U, 0x3e8f4936be2ab007U,
  0xbd2c31893e5b78dbU, 0xbd86a187bddd5659U, 0xbea5447c3ca942f1U, 0x3e2d121abf01c4c4U,
  0xbddddeb53e3392cfU, 0x3e3eb982be17ab3bU, 0x3d5c977f3ed1e664U, 0xbe64673abf0cc5d6U,
  0xbdcad8dbbeb896bcU, 0xbe24f7b93ea3ac81U, 0x3e7baac13de41b9aU, 0xbecaf4f53e8a5e3aU,
  0xbe74b85c3e976afbU, 0xbeacd1ed3d036bd4U, 0xbe832095be61e4b1U, 0x3e8eea733d7d0131U,
  0xbdc2487bbe89b996U, 0x3dc08309bbb72a1cU, 0xbe9418353de287caU, 0xbe76c984be2a2255U,
  0x3dd51bfc3e1709a9U, 0x3e9aba10beac9782U, 0xbe47fd3dbcc7d64eU, 0xbdc55d70be42f9bdU,
  0xbe13c70bbe54c248U, 0xbdf24662bd8c1037U, 0x3e4586ae3d9f376dU, 0xbe66d8873e1a7d24U,
  0x3dea524c3dbfeef5U, 0x3e68bbfbbe33d022U, 0xbe6469b5be8727ccU, 0xbeaf99f43cbf61c9U,
  0xbe4883c33c7bc373U, 0x3d96b75c3e14ab45U, 0xbd855ccebe7c2d21U, 0x3e56e15c3e373ff2U,
  0xbc0f70903e4b40f7U, 0x3ea44d673e81778fU, 0x3ca0f661be2e4e8cU, 0xbe2fce01bdab6469U,
  0xbf01c3e6be940a02U, 0xbd04d2bfbcdef8edU, 0x3eae4425be9b120bU, 0xbee9f8953e8b96f8U,
  0x3e588282bebbd1f1U, 0x3ecdc26dbdd244a3U, 0xbe5aabecbe9b38a6U, 0x3c90b2a1be6c132dU,
  0x3ebae4833f05e5c7U, 0x3e11ff383e8a982bU, 0xbd659c58bcd0cbdfU, 0x3e2ff9fd3e2e205aU,
  0x3d8cccac3e9d26b2U, 0x3e5b6971be030a40U, 0x3f1572c9be6bd6fcU, 0xbd0c18133cdc9e6aU,
  0x3de2e3833e25a77fU, 0xbc2b44c23e096fedU, 0xbe1b577e3e246537U, 0xbe8324193ec1ead9U,
  0x3e95bb683e127eb5U, 0x3e9fa1643ee8f3a0U, 0xbea93874be875183U, 0xbc4c20533d1d1a84U,
  0xbe7bf9a63e75ba47U, 0x3da27c6d3deb2771U, 0xbd773a68bd6e2823U, 0xbc3860b9bc7a5acdU,
  0xbe071cbbbeadc8a3U, 0xbe04c1d7be267f0eU, 0xbdbaddd2be12d6dcU, 0x3e2a1f203d2ce87dU,
  0xbc298e26bda5b4c7U, 0x3f06c3d23e11ffa6U, 0x3ecc71b4be8fe7fbU, 0xbe803175bde205afU,
  0xbe5ee0e33f0a969bU, 0xbe5725b3be2bdc76U, 0xbe8e06923e2d41e5U, 0xbe65a919bdc47355U,
  0x3e677c52be312dd2U, 0x3e8dee6f3ee17b02U, 0x3d30f278be554f48U, 0xbeee47333e898e90U,
  0xbe894a8d3e36efccU, 0x3df951bcbdf2fcd3U, 0x3e4ba07fbd9a4bf8U, 0xbe648adb3df9b56aU,
  0x3e2d5bd63e03a842U, 0x3e8b018fbcc794c0U, 0xbd664d38be227fe3U, 0x3e4eb4e33e170626U,
  0x3d20b94f3dfb97a2U, 0x3e3264bfbd9ee4d1U, 0x3e169fd3bda18b40U, 0x3ddfab293eb1d02cU,
  0x3deda16abe73b79dU, 0xbd9344cfbd52ff05U, 0xbe21f6fbbdbe2ec1U, 0xbe695e5d3e89347fU,
  0x3e53f8fb3d726140U, 0xbde0a9f63eb4fcf4U, 0x3cd7992e3e4a9008U, 0x3e2e9f6ebe8b1be1U,
  0xbe7bf81cbea10c41U, 0xbc5b0920be0619c0U, 0x3ed6acc0bc34933bU, 0x3df4b5fa3deaeaa2U,
  0xbe5237183ef39bf3U, 0x3f1de6953db53f83U, 0xbdf82b1d3d43abc5U, 0x3e97a185bee39182U,
  0xbd935ec53d0a0a9fU, 0xbd90ee74bd06617cU, 0x3e81d3da3e00e3d3U, 0xbdf1961abe67e19aU,
  0x3d0fae3bbdfd6bb8U, 0xbe1cf7963e862594U, 0x3d93c2b4be879b36U, 0x3e5d5a3cbe85d23eU,
  0x3e3bb0d6be24f370U, 0x3de0b9473d1543ecU, 0xbe8963f7be0abdd6U, 0xbea86b82be8175ccU,
  0xbd95f262bdb3ca80U, 0x3e44462ebdaa34c0U, 0x3e8f6c4dbe920b0fU, 0x3d347f8d3e4dd21eU,
  0x3d94fa353dee8c73U, 0x3c65ff77bdef6912U, 0x3eb10c55bd056855U, 0xbc2b94a0bdfdde3dU,
  0xbd7ee6783eae4a83U, 0x3e8b551f3da52403U, 0xbd0f77213e8e36b2U, 0x3e0a9508be45b348U,
  0x3e50740ebed1a191U, 0xbdd6cbf83e7dbe79U, 0x3e0104b63d5feefbU, 0x3ea801c7be176136U,
  0xbe871f08beb10832U, 0x3e0b3cf83e555780U, 0x3b67e863bd784d50U, 0x3eb3a8cbbdeadee1U,
  0x3ed9d0ab3e35627eU, 0x3e057eee3e524d65U, 0x3e106003be421ed1U, 0x3e88c072be2eb797U,
  0xbe071c6d3d4204b4U, 0x3c3fc87ebd16b2b5U, 0xbd21654ebe057d16U, 0xbe6f7e273becc5f1U,
  0x3e21227b3ee379dcU, 0xbe805ecd3e93b2beU, 0xbbc933943ec6dd6cU, 0xbd50c1d0be8ad3bfU,
  0xbe8eb7dcbda9581dU, 0xbe09933a3d9d4b0cU, 0x3eaf01653c966337U, 0x3d8264a33ea36135U,
  0xbe82eccc3e911db3U, 0x3d9e91ab3f21ca4aU, 0x3e0975043e1f6279U, 0x3e1654d73e631f66U,
  0x3edf1e4fbe4251baU, 0x3de32e36bd8dd32aU, 0xbe9261713e587cebU, 0xbd724af93d7a2dd6U,
  0x3e9e157fbe9efda4U, 0x3eb2f768bcd4d6bbU, 0x3eaa27fc3cfcd29fU, 0xbd4a9f25bdd3b94fU,
  0x3e81689a3e62546bU, 0xbea6ca4fbe1d0ddbU, 0x3de8b16f3e50f8ffU, 0x3e7df0703e9be6a5U,
  0x3e04f21d3f10a53dU, 0x3e93b7633e70c9dcU, 0xbe528a6dbed2e8f7U, 0x3d699efbbec46d5eU,
  0x3e1413a53dafe9ccU, 0x3e0d55db3eee7f15U, 0x3e5acd74bee242afU, 0x3ce7e4923eeee506U,
  0xbe9c0729be995516U, 0xbe477dbe3ed0cbfbU, 0x3f15a6bf3d5a149aU, 0xbed85c5f3e5abb5cU,
  0xbef6d5b93d7847c8U, 0x3ec2bc483d75be43U, 0x3e1c7769bc60b054U, 0x3e7f3484be8330deU,
  0x3cedaf173cecbe18U, 0xbf0957453dbc3dd5U, 0x3cb037373d7d775dU, 0xbe39370abe9ca548U,
  0x3e9cd8a1bd8f4ab3U, 0xbe4e090c3d1fc32cU, 0xbebedc49bd9b0fa6U, 0x3e03bb65ba89da15U,
  0xbe22a668bea22cd7U, 0x3ec82a0b3d4d138aU, 0x3d2e3ef6bdd2ac16U, 0x3e55962f3ed73340U,
  0x3ec2bf6bbe361370U, 0xbe9241a3387b2a68U, 0x3ce6fedc3e97f3caU, 0xbe8f00913e48cec7U,
  0x3e9b1774be9c2371U, 0x3de2c1363e420839U, 0xbe677a55be826abbU, 0x3ec4dd9abd951c31U,
  0xbdb04f42bec43ca2U, 0x3dbb5013bd9ef7daU, 0x3d5fa9503d1c0dc1U, 0x3e97a88a3e6eb7a6U,
  0x3e0c6178be8918ddU, 0xbcaaaa593e62294aU, 0xbe8dc606be08d0e9U, 0xbde258923e27527cU,
  0xbed02a5fbe344648U, 0xbe235db637328390U, 0xbd576ac3bd18ec38U, 0xbe85cb5f3e656b05U,
  0x3e752055be7aa62fU, 0xbe6635dd3c8ff83bU, 0xbe00f0fd3d915852U, 0xbeb3e4fc3d96bdc5U,
  0x3d22c9d6be24af07U, 0xbe2414803e26cd63U, 0x3e79f94abe2cee4bU, 0x3e66ca063bdb56a7U,
  0x3db1a39cbec0001bU, 0xbe90b87dbe4d2d80U, 0xbdb09fe13d5011b3U, 0x3e8b2bc6be34dcedU,
  0x3db81917be332685U, 0xbcb903eabdb29503U, 0x3e02b6cb3c9903ceU, 0xbe0976f2be92d1d0U,
  0xbe3cfafeba770a0bU, 0x3e22fb1d3c041be8U, 0x3eb5a0773eef739bU, 0xbec9aa083eb6ea7cU,
  0x3d701d98bec63d13U, 0x3d8bdba6bd9c43c1U, 0x3ead63b4bdf06373U, 0x3e96b5cbbed0759cU,
  0xbf01b1a23e5d9d88U, 0x3e4c2672be7104a0U, 0xbd5f3bb5be2639feU, 0xbdea3fc43e795d64U,
  0xbc404de6be26964aU, 0x3ea62a85be8bb3deU, 0xbc8e81773e9fbf0bU, 0xbd8becd3bdd6d6a6U,
  0xbe94f7223e1b445dU, 0xbd94fb87beab7a12U, 0xbec4721c3e124677U, 0x3e06e7e23ee5b873U,
  0x3da751533e94dd2aU, 0x3e9401183cb98c04U, 0x3ec1daa0beb5d81cU, 0xbe291ae4be232f20U,
  0xbd41ca41be49aeb5U, 0x3e037c7e3e37d752U, 0x3ed0e81fbe1afc8dU, 0xbacee7c4bc9aae16U,
  0x3e6efd7bbe2c8062U, 0x3dffa1bc3eb10f5dU, 0x3e85e13bbf01117eU, 0x3db791603dad5869U,
  0x3e688cb33ec8a926U, 0xbf130ab43ecb8f5eU, 0xbeb80a7f3d02a943U, 0xbec6398ebd330399U,
  0xbe82972f3e869e65U, 0x3de80890bdfadcb2U, 0xbdf786f33d718b93U, 0xbd9e114f3eba1e4cU,
  0x3e5302033ed4003aU, 0xbec30b393e5cc9c7U, 0xbe8e02eb3eb5acbcU, 0xbdf4d48a3e7b603dU,
  0xbedcab3fbeb63129U, 0x3e675425be5418b1U, 0xbe3c27af3e50477eU, 0x3e2acd98bddea37bU,
  0xbea328e7bd13ff1aU, 0xbd8a4d8f3e18a3f8U, 0xbee2ff88bd8cc5f1U, 0x3ec28cf43e7ad6deU,
  0x3edf63203ba4f6afU, 0x3e996580bec8635cU, 0x3e10e65ebeb03554U, 0xbe7f33043c7e0bafU,
  0x3eab53983e2532f6U, 0x3ed2ce6ebe0e2102U, 0xbd36223c3ea7e1acU, 0x3e9d789f3de79f00U,
  0x3e957b10bdf343edU, 0xbe625444bd87e54eU, 0x3e80a4b6be54f744U, 0x3ee65e4c3deb1af9U,
  0xbe2af26fbe12caf8U, 0xbdf97208bed20a27U, 0x3ee1bcbebda204e2U, 0xbe4eba0bbe8c289bU,
  0xbdeb5cc63f942969U, 0x3f02ea6b3e8a965cU, 0x3f274883bf546f08U, 0xbf4d506b3e80eed4U,
  0xbcac29d0bec77e93U, 0xbf59f21a3f28527cU, 0x3f055ef3bb8e4a32U, 0xbf257d2a3eb0fe1aU,
  0x3f3dde22beded950U, 0xbd4bb2263f1bc497U, 0x3f4075f43ec0abadU, 0x3e9cdb573ea1e0bfU,
  0xbec2cc7a3e8b9dc8U, 0x3ed9b80e3e0d697dU, 0xbf2ffb623e75378aU, 0xbf25d7ec3e487271U,
  0xbf2029f1bf143685U, 0xba0558003e379c21U, 0x3f07203f3f410c68U, 0x3dcdb112bf22d88cU,
  0x3f203e703e5e38eaU, 0x3e9ec6edbd92bee0U, 0x3f4b092e3f7c4094U, 0xbd7cbc0c3f0e227eU,
  0x3e1c4334bf07e326U, 0xbf16ec4cbe88f7f0U, 0xbf06bcf73e4ad827U, 0xbf3d12debef7b09eU,
  0xbe953908be08dd6eU, 0x3e87c2a23f2e3495U, 0xbecf8c973e3a6654U, 0xbea1394e3e30744cU,
  0xbda19cc13f0a0471U, 0x3f991b253f16a9d0U, 0x3f31a37abefe0f46U, 0x3e5564303e1364f7U,
  0xbef002ae3f3dd1cbU, 0x3ee104e83e717ed5U, 0xbe4a3965be93b7bbU, 0xbedf62b6bce6ba24U,
  0x3e6588033f01b701U, 0xbf406e42bf1102eaU, 0xbd2877f03f189c6aU, 0xbee0a41bbf5c3df8U,
  0x3e1e26eebf8ae942U, 0x3e7dda583f7369deU, 0xbe2bb5373f5466fcU, 0x3beccdec3f09081fU,
  0x3f55d4a73f0f62bfU, 0xbf0ae9113e6b33beU, 0xbf37769ebf324d5bU, 0xbd82041bbf3aca81U,
  0xbe1a11f13f122234U, 0xbf15ab303eefb1a7U, 0x3f3a780e3f6091f1U, 0x3ee25a38bf19fe74U,
  0xbfa5db563f768390U, 0xbf73f2483fe97e46U, 0x3f560ba6bf8db7afU, 0xbe4615d5be7701b4U,
  0x3f24947b3f186ef6U, 0x3f43d1d13ecd8213U, 0x3f2eea8b3e3cc5ccU, 0xbe41c499bed7243dU,
  0xbe08e7e0bf44760dU, 0xbe8a75cdbf5dde35U, 0x3dd3bc573f6b3e96U, 0xbebc154a3e31b1ddU,
  0x3e8df4cdbedd2ce1U, 0xbebaf1da3db3e9d5U, 0x3ed697a2bf26ea62U, 0x3f1f7651bf370fb1U,
  0xbf89f9a8bf3a7072U, 0xbf0ef6693f1f1260U, 0xbdee958e3eecb298U, 0x3f820adbbef6a70bU,
  0x3f1918a9bf5b1e35U, 0x3f05d267bdf7a8b6U, 0x3d8c996a3fc274efU, 0x3f63e90a3e8d54ccU,
  0xbf83a0b9bf33d5b8U, 0x3dfa7919bf0fce31U, 0x3ea22b223f5bfe81U, 0x3f0d15c93d1c12b4U,
  0xbe831d253e97a6f9U, 0xbe35c46abe92f885U, 0xbf10c885be99da9aU, 0x3f01a3c5bf0ed870U,
  0x3cbfcc603f2c2b47U, 0x3e8b84103ea082fbU, 0x3e9038073ed660eeU, 0x3f9d872bbf733a4fU,
  0xbf87f2ec3f61642eU, 0x3c43c847bfef4b2bU, 0xbf84e540bf70d11cU, 0x3dd70f2abee392bfU,
  0xbe2b126f3f442b8eU, 0x3f9afff8bdf41573U, 0xbf1b2958bf1f44c0U, 0x3ea710d23f12edbbU,
  0x3ef84d883e1639f1U, 0x3f02af10bdf26088U, 0x3f063929bde2f1e1U, 0xbd5bc61d3f3a8d9bU,
  0x3ebe918bbe88f3c2U, 0x3e1fdfb4bede1114U, 0xbf3985483f1320e9U, 0x3e9c74e13eba0561U,
  0xbf67b1ebbeeccc53U, 0xbf7af453bd38d0d9U, 0x3f0b77afbf49101eU, 0xbf5ee4f6bedf3118U,
  0xbc6d807bbe4234c6U, 0x3ed1f4f63f711e23U, 0xbf6dcc653e8c71a7U, 0xbf1dcd033f5d0b80U,
  0x3f3c8397be8e9a1aU, 0x3fa4bfa1bf3214caU, 0xbfab44ec3dc35a1aU, 0xbfa4b5d7bea5b957U,
  0x3f0477093f9e3d6dU, 0x3f0469c4bf6c912fU, 0xbe87c3713e382308U, 0xbea7d87fbf8213d6U,
  0xbf9c56393f93a99eU, 0x3f40af6abf98ad7bU, 0xbedd4cdabf48baddU, 0xbe95c781bf79dfefU,
  0x3eda11f1bf7b21e3U, 0x3e6175c0bd77c099U, 0x3fa7717bbe35aaa1U, 0xbf33015d3eb07e9eU,
  0x3f34c0233edc1ce6U, 0x3ed3db3dbf157eadU, 0x3e9dcb99bfc3d6b3U, 0x3e9ebbac3f28894dU,
  0x3f8ab2573f1b2659U, 0x3f8e670a3f861b7eU, 0xbfa63fe4bd79041eU, 0xbfc17f62bfbe2233U,
  0x3f15ae273ecb441bU, 0x3f89a501be856743U, 0x3e479bacbf1a78caU, 0xbf534c923f8ce6a8U,
  0x3e99ffb33dc2a8beU, 0x3ea9db13bee5e6e2U, 0xbe8f718cbf0c198cU, 0xbf372c2cbe0a48a1U,
  0xbe518186be93618cU, 0xbf083e443f138dcbU, 0x3f195323be8450a8U, 0xbf8247e03dd00a7dU,
  0xbf1b715b3efd7fefU, 0xbf69d7113e0e214bU, 0x3f667b2cbf30f44eU, 0xbea19ff53eb0f089U,
  0xbf30427e3eb35e6cU, 0xbee3dd053d833d76U, 0x3f2e2ecd3ea3aacbU, 0xbf9c4900be6cdd19U,
  0x3d878f48bf050277U, 0x3f2a8876bf4e34e7U, 0xbf7b42813ebc97d9U, 0x3e09d6933f0dd3a4U,
  0x3ee93d693f1f92aeU, 0x3e9e8c1e3ef4cf31U, 0xbeb0ecd73f338353U, 0xbdf61abdbe87b0a6U,
  0x3f548ccdbf78eb36U, 0x3e084f143ee976f8U, 0x3f63e1113f2b01d5U, 0xbcf8effbbf92c645U,
  0xbe89e136bed76a8aU, 0xbd638ca6bf1beeeeU, 0xbeda3177be4c9582U, 0xbdcb62d7bf3529f7U,
  0x3f2d9c523ec67432U, 0x3ee9c19bbea741d3U, 0x3f32e495bf07e1dcU, 0x3dc4ba933e98538eU,
  0x3f0c0826bf0837d2U, 0x3e668758beb442e5U, 0x3f06864f3f3ce75fU, 0x3c76d386bd0b2238U,
  0x3e899c78bdbbc077U, 0xbe50548dbe8927fbU, 0xbf013c74bf54213aU, 0x3e8084ffbf0f02b5U,
  0xbf1d8f9a3ea4a0d4U, 0xbfa0cae03f2ad58fU, 0x3f20dadb3ffce933U, 0xbfce4be1bead0968U,
  0x3ed24f77bf72b2c3U, 0x3ebc61e2bf751e43U, 0xbed9753abf88463dU, 0xbf46c7933f415753U,
  0xbe7bf87dbf09b027U, 0xbf932c7cbed1ac1cU, 0xbefdacf8beb4b088U, 0xbd89cc85bf39a6d4U,
  0xbf8fa42dbf08f5dfU, 0x3d953397bf2bc17dU, 0x3e69deb3bcdc3446U, 0x3e988d67bd2fc4c9U,
  0xbf40ebbdbf027610U, 0xbdc87aea3f32eb3aU, 0x3e92f9be3f2288f2U, 0xbde07631beb47897U,
  0x3d8ec3b03faa1639U, 0x3ee802bcbdba6335U, 0x3ec85c1f3dc2222fU, 0xbe7a1b46bfa21745U,
  0x3ede421a3d88b011U, 0xbf8f83563f0c6c35U, 0x3edc8459bf669887U, 0x3f120c8bbfb882bdU,
  0xbe1fd3f8bf66f163U, 0xbf2bca573fab1f8dU, 0xbfa0ca0ebf8467fcU, 0x3dd33a2c3ead2b7cU,
  0x3da36a873e91e4f2U, 0x3ea01991bf050442U, 0xbdbc7d113eab9d18U, 0x3efc32c03ec46a27U,
  0x3e326d9dbf055504U, 0x3f50e83a3ee959a9U, 0x3e6c85e33eb838bdU, 0x3ed8650d3ebceff3U,
  0xbf0500c73f0e5b5eU, 0xbf186a5d3f210a1dU, 0x3f42b73f3ea2dc20U, 0x3f4b589b3e560083U,
  0x3e6ee8093ed46c53U, 0x3bce2d9d3f453a45U, 0x3f11bf27be3c0d15U, 0x3f2ebb9ebf0efe6cU,
  0x3f4798583eda6137U, 0x3e9d5087bebafdc9U, 0xbeba7c563f1b98f9U, 0xbd8239b9bf9c50b5U,
  0xbf6d12dfbf93ebdaU, 0x3fcb62eabf0a42c9U, 0x3f3433bcbed9d61dU, 0xbf3563473e510910U,
  0xbf1118293f00046cU, 0x3ed23c863ecff5f0U, 0x3f818ff0bcc8eaa6U, 0xbdbfc6ffbe8b0f66U,
  0x3eb62787bf521c9aU, 0xbec524303f2093fcU, 0xbce8e366bea8bda2U, 0xbd0c085bbe8decb6U,
  0x3f142a07bf45b94cU, 0x3f26b5e33f1ac118U, 0x3e4f479dbdbfa1dcU, 0x3dd1dd86bd715731U,
  0xbf5df5bd3f201401U, 0x3f123b80bde9436cU, 0x3f9452f93e7025cfU, 0xbd94afc4bf6fd9ffU,
  0xbe46c9ae3d2f31cdU, 0xbe45db83bf2a34f8U, 0x3ed10d943f4b6e10U, 0x3ebced57bf12df6cU,
  0x3ead5901bebb57c4U, 0x3dc578233b39cd1dU, 0xbf7653863fabee74U, 0xbe0745fdbf9a1948U,
  0xbf5decf9bf8f18b6U, 0xbf2c81403e3d56d5U, 0xbdf1eb033f295ab2U, 0x3f3f7b383f19c368U,
  0xbf0cfbf53f64591cU, 0xbe39f69c3e5260acU, 0x3f1632efbf5f47c5U, 0x3f50b2413f6c10cdU,
  0xbeee869cbec9e6b6U, 0xbca1ece43eb4370aU, 0xbf1daa3bbea4ccf0U, 0x3f071b2ebf5e06a9U,
  0x3f06c15bbf1937d0U, 0xbd8084e9beb4e917U, 0x3ecb06833d83a5e1U, 0xbe3b5e953f639d8fU,
  0x3ebc801f3f0605f8U, 0xbf3cd96e3e25dd54U, 0x3f28c8a5be0859fbU, 0x3da57c62bf62d35fU,
  0xbf191babbf41f503U, 0xbe7b12183f50306fU, 0x3e68f264be8766c1U, 0xbf6aebddbf56d206U,
  0xbdd05699bf2ebdd1U, 0xbe8cee83bf242c2dU, 0x3e7ce6273f0765cfU, 0xbf8dddee3d0806c4U,
  0xbfadcd083fd58c40U, 0x3ea6fffbbcce77aeU, 0xbf3de00f3fb33e5dU, 0xbf465bd8bf908588U,
  0x3f2d2f733df82c4dU, 0xbf764aa4bed5abdaU, 0xbeda57f6bea2ce67U, 0xbf6f28e7befb3cfaU,
  0x3d2d0347bf19d841U, 0xbf87978c3f14101bU, 0xbf00e359beffd7d1U, 0x3d4e1bf43f0bedb6U,
  0x3c0a4fe63f4de519U, 0x3f745e69bdfd1c22U, 0x3f6de6fa3f04fcaaU, 0x3ee0921abf4a14d9U,
  0xbf144b98bee0f552U, 0x3e4631493f473967U, 0xbedb64f1bebb5175U, 0x3f107bb9bec4e672U,
  0x3a4fe0e53e710ff0U, 0x3f060725bf4a37aeU, 0x3ef24947beae37abU, 0x3f02f33e3e960548U,
  0x3e593f8bbf412ed8U, 0xbf200ce63f456d8fU, 0x3db530683ef82d00U, 0x3f11f664bf550c2aU,
  0xbc7538283ee9984eU, 0xbe934334be82c041U, 0x3fc72a3cbed3a414U, 0xbf140a033e0dcfaaU,
  0x3f7a1708bdafc54fU, 0x3ea97540be81f815U, 0x3e9bc3693f3bfeb5U, 0xbc3f3a143e7dbe70U,
  0x3f5394e1bef4ab99U, 0x3f07591a3e95a3c5U, 0xbebed9623e08f323U, 0x3f84b80abdf48163U,
  0xbf0b1026be877df0U, 0x3ed840f73efe386bU, 0x3f9b3b573fbbd1caU, 0xbdfa468dbe36e618U,
  0x3e5aac243f16a3fbU, 0xbef35894bea5d1a5U, 0xbf1b68b2bf62da08U, 0xbe85d4a13f116233U,
  0xbf0d975d3f1a62a9U, 0xbe8e7c77bc452528U, 0xbe2290383f9ca547U, 0xbed197ebbdc534f4U,
  0x3f1ea29e3e97f243U, 0x3eba5fd43ed70114U, 0xbf2434773fa0435eU, 0xbed886b63ec5f9b5U,
  0xbe80914fbe248eb3U, 0xbd85ec26be84f006U, 0xbe856f8ebdd3c283U, 0xbd8f59b63e222af9U,
  0x3de2a4173e90eb42U, 0x3eb546ec3e09603bU, 0x3d8aef43bd87d47dU, 0xbd5316343c6df12dU,
  0x3e103cd13e64b9f6U, 0x3ec597783e6c60b0U, 0x3e47ede53e900be5U, 0xbe91c621be30c00dU,
  0xbdceb1ccbe8f13aaU, 0x3db2921b3e8514cbU, 0xbdec1172be4793e1U, 0x3e85819c3d5665d1U,
  0xbcd6133dbd8e69dbU, 0xbe11b484be3e9b3cU, 0xbf062519be1c35e2U, 0xbe80784abeb0d18dU,
  0x3e97a3563d17e6e6U, 0xbeb51de4bd910741U, 0x3e87059e3db1f260U, 0xbdefba6b3e0f6fcdU,
  0xbd61c4443dfb6bcaU, 0x3c8c6bf83de04d18U, 0x3a8a502c3ec0123cU, 0x3e9459efbda009d7U,
  0x3b33c035bd0aad0cU, 0xbe939982bd26e516U, 0xbe96d297be56bdc0U, 0x3b1c7cde3cdd7606U,
  0xbc8e980a3e211b98U, 0xbe0506773d1321d8U, 0x3e1c7a003d137deaU, 0xbd357ad9bdc172d4U,
  0x3dae20333dfa4986U, 0xbd9267cebdef416aU, 0xbd411bef3e92520eU, 0x3dd8e09b3e9646d8U,
  0x3db4f65dbcbc9756U, 0xbe45db43bc873188U, 0x3e2bbe0f3d8f314cU, 0xbe931ab53e188dc1U,
  0x3bf8aed03d863915U, 0x3e958b4dbe219d5bU, 0x3d1aae5fbdd2de07U, 0xbd98d7f63dbb08e4U,
  0x3dca6e41bd4c6ec6U, 0xbd42f31a3e2d6f6bU, 0x3e3e44e53bff4ca8U, 0x3d69d408be3166dcU,
  0xbc0a7c1d3e52ad68U, 0x3cf7d9c5bd3c8b07U, 0xbcb38c68be52d2baU, 0x3dfa550d3d117086U,
  0x3e98d7e2bcd291d3U, 0x3e7cdfdbbe9b10abU, 0xbe65c9983e1adde2U, 0x3e2f9dfc3d775ad1U,
  0xbd940ac1be005648U, 0xbd5c55163d851c18U, 0x3e70a1b93d265b6bU, 0xbdcc54a3be28033fU,
  0x3e863011bcce73d2U, 0xbe47d98dbdc3d726U, 0x3e94e97ebe33f9eaU, 0xbd2789f9bd4bc7f2U,
  0x3c310361be0f5461U, 0x3e4d1b3d3dd16ca5U, 0xbc8721e73e164c93U, 0x3e7115b73e12d7ccU,
  0xbc1209ec3ea3e3e0U, 0xbdfdc07e3d394dc5U, 0x3e70be953c107b3eU, 0x3d05ed313dd4e35cU,
  0x3d4442dbbea5eec0U, 0xbd2492ae3e3bc19cU, 0xbe155ae3be4227b7U, 0x3d3812bbbe96bab4U,
  0xbd623a67be6ddd3eU, 0x3d3a2e20be261db7U, 0x3e866c4ebe4b7eeeU, 0x3d93dcca3dd252a6U,
  0x3e90c296bded826dU, 0xbe67e1ddbeba13e5U, 0x3df05e4ebeafd2a6U, 0x3d842c96beee8161U,
  0xbe2d2506be379d47U, 0xbe4ecfcdbe769e20U, 0x3ede39b8bec1ebabU, 0xbe87e1293ca90d78U,
  0xbde9c0453e3aa96dU, 0x3dda85b8bdde7767U, 0x3dd64f8bbc57b03dU, 0x3dff66d93e502943U,
  0x3e302ed33eafd657U, 0x3e202bcc3b99018cU, 0x3e2f28e6be3c0ffeU, 0x3cd083e2be8dc582U,
  0xbe1b9a0abe45cc3aU, 0xbeca14bcbe7cd453U, 0x3e8205e2bb91452bU, 0xbe669a6e3e18ab56U,
  0x3e9f7998be9bc1b3U, 0xbef32f623bf3d819U, 0x3c40fc25bda6fdeeU, 0x3d69a4193e825fffU,
  0x3d91386dbc0eeeb2U, 0x3e7b6f76bdc2a53aU, 0x3d06dfdb3e909a01U, 0xbf02d0653e70f452U,
  0x3e9148193eb17016U, 0xbeca1cd6bda6e2abU, 0x3e6d0cc6be5ec12dU, 0xbde1be173d0a4f5bU,
  0xbdc7badcbe0e2a68U, 0x3e4d039e3d3105d8U, 0x3e9c20663e389444U, 0xbdbed7d23e1fb137U,
  0xbe040b26be4ea105U, 0xbe04a2debe2f5b6fU, 0x3f01bd8abddcce07U, 0xbd7abea6bd819468U,
  0xbe8a9f103e136663U, 0x3cc74ea0bde0c6b3U, 0x3ebe4c16be816863U, 0x3e792bca3dc7ad82U,
  0xbea6648f3e7d4885U, 0x3d1f3d59bd12e26dU, 0xbed1233c3d3a9ad3U, 0x3e24686ebe8741deU,
  0x3df43244bcfc7909U, 0x3ed2a58dbe1c9fb1U, 0xbd3284f2be28bde9U, 0x3dfad52abe83704aU,
  0x3e84b9393e57c5c4U, 0xbe09b2ed3e25bb26U, 0xbe4fc0143da85f56U, 0x3c72ea7a3d052309U,
  0xbeadd66d3e810f3fU, 0xbdda66c5bd191147U, 0xbe1d95c03e073137U, 0x3cfd0bb5be04011fU,
  0x3ded14d73d876b43U, 0x3e2083aa3e450a99U, 0x3e94adb83e225bbbU, 0xbe9de304be1f6ce0U,
  0x3d82e136bcb4dabfU, 0xbd946ba53f02ff64U, 0x3e9625893e49d8edU, 0x3e1b1200be5ecd4eU,
  0x3e575e1fbd8801c3U, 0xbd0530ecbd7f3215U, 0xbdd267dd3cfae150U, 0x3cf131333dffc77aU,
  0x3e2925553e04791dU, 0x3bd5e4cbbea3d22aU, 0xbe9907b43e841a01U, 0x3d0b45ff3d88acd1U,
  0xbecf1fe6be0c85fcU, 0x3da235863e264949U, 0xbe047b9e3de7c2cdU, 0x3e53fd8e3da72793U,
  0xbd920b6e3cd72c95U, 0x3cb8eb52be6b92deU, 0x3cca8c43be82d8fcU, 0xbe8f5f4dbd8c73f1U,
  0xbe8ab5fd3d5cc502U, 0x3dff4103bbafabc7U, 0x3e0b69eabe74a46bU, 0xbd03bc18bc6ae0b1U,
  0xbd9778783da6ea85U, 0xbe82feed3cf867adU, 0xbe0756cdbe5ce73eU, 0x3d6343093e0715b4U,
  0x3de036293cb520deU, 0xbe6350b43c9b927aU, 0x3d39f0393d4014e7U, 0x3cf0ada8bcbe5d62U,
  0x3d699b813e34c4f2U, 0x3d8c6b00bc600944U, 0xbd787f823ee02c87U, 0xbebdd39a3b8c4938U,
  0xbd99b373be48f06dU, 0x3db34da3bdf6e94fU, 0x3ce6c12dbde686f1U, 0xbe73bc863d9f6de2U,
  0xbdee1cc8bd74f15aU, 0x3ecd7a683e7dadbaU, 0x3dde2ee9be67487eU, 0x3ca26e28be284db2U,
  0x3d1a4f0dbc2c4751U, 0x3ddecf733d012e53U, 0x3d07f8acbe2d5ec4U, 0xbd916f16bb74d4bdU,
  0xbe65fd533e28b915U, 0xbdfc8d6c3c033734U, 0xbabb09bbbd6761f4U, 0xbc45b0bdbe0aa226U,
  0x3e1611cabd314b4dU, 0xbe1110df3e4d82eaU, 0x3dc91a443dbd6fd6U, 0x3e056702be59aee5U,
  0x3e1227443df4794aU, 0xbe207e033bdc36c6U, 0xbe58b0f0bdca1541U, 0x3e6b24acbe859617U,
  0x3d19e559be515c07U, 0x3de2aa933c947e0fU, 0xbd31b44a3df75a18U, 0xbde32144bda42611U,
  0x3e2e166dbcdf7160U, 0xbe5d7a673c6b0eabU, 0xbd7003773e860b11U, 0xbe32f48fbd68f7baU,
  0xbe3790ffbd86ff68U, 0xbe4c6620be155837U, 0xbece01aa3de1da87U, 0x3dd6cb70be21e909U,
  0xbe4bf34bbe2e11c6U, 0xbdd5404cbd3a84c0U, 0x3e06aadbbe94fa2bU, 0x3da2b7cb3eb4cf40U,
  0x3eb0202ebcdf1fabU, 0xbd802368bdcf843bU, 0xbe915eaabe05c8c1U, 0x3d65f9b13e33d13eU,
  0xbe2262763caf171aU, 0x3cc2b3f8be405187U, 0xbe547c22bde6d4e9U, 0x3eb4084cbcaaab45U,
  0x3e96f7a7be6b3627U, 0xbe043577be47272dU, 0xbe02c500be080ef7U, 0xbd127c7f3d524ae6U,
  0x3e21e793bc089cc5U, 0xbe62ed78bd37ce3cU, 0x3e2e487fbe9fe092U, 0xbe8e42fd3e2ea103U,
  0x3cc6fbbdbd778ff4U, 0x3e037df23dc9caf7U, 0xbe47c2893dcc15f8U, 0xbdeb058b3e3155a8U,
  0x3e7bc785bdbf31deU, 0x3e21fe5ebdb9cb9aU, 0xbdd25a65be757b8eU, 0xbd0a745b3e9b7b38U,
  0xbca0b48e3e2ccab9U, 0xba4ed1ecbe8c0d45U, 0x3e4a4f0bbbad4fc9U, 0xbdce177bbcc2b8c5U,
  0xbe97aeda3dfa9134U, 0xbdc01876bdd910c3U, 0xbe8014d8bea4db9eU, 0xbbb3e21d3c536ba3U,
  0xbd72a690be5e94f8U, 0x3d7f9ddcbe982dddU, 0xbe661dd93d41c346U, 0xbb8977e93daeff6aU,
  0xbd599485be2e2291U, 0xbe8177bb3d9cde72U, 0xbded45443e8d8ddbU, 0x3e2484773d10cb11U,
  0x3d90e52c3e281803U, 0x3e169dc1bebb45d8U, 0x3e99f3b9bb998db4U, 0xbd50d404be9fedfeU,
  0xbe960c72bd98e074U, 0x3d72ed7e3e215af2U, 0xbbfce610bd0d1a65U, 0x3ea72336bec0af3bU,
  0xbe9706873e2e3fdbU, 0xbdc38bc03c8e5eedU, 0xbe98ad2c3e805d27U, 0x3e4454f73dcf7b26U,
  0xbea58045bd050fc9U, 0xbebe12c5be82e3d3U, 0xbd4dd97fbc8e0d1eU, 0x3e0af017be0a2282U,
  0x3e3897b83d4df381U, 0xbd57bc573e3a70a5U, 0x3e0b01dabda472cfU, 0x3c96e52a3e323616U,
  0xbe02994ebe50614bU, 0x3c776b903df626d7U, 0x3de2a78c3e5e2855U, 0xbe8997653dbe3bb6U,
  0x3ebda387be5cd22fU, 0x3e896980be612e4fU, 0xbe3e03fe3c1add34U, 0x3d8401253e476c1aU,
  0x3e12760b3f0c7500U, 0x3e0557d2bd8b9b4bU, 0xbdc1ad06bd5afebdU, 0x3c050678bdea3e25U,
  0x3ec3ad103cdeedb6U, 0x3d85196cbe1e59d2U, 0x3e0cf908bd6f290dU, 0xbe1b92153e2b8cc2U,
  0xbf07006c3dfb783cU, 0xbdcac5803e9f085bU, 0xbe7b5584be43ff1bU, 0xbe9e5b623db8ecdfU,
  0xbd9747e33cc8eb85U, 0x3c9954913e46b975U, 0x3e82b2c53e9b4009U, 0x3efc62d2be88e8d2U,
  0x3cc497e23e53ab85U, 0x3e60a3c5bdaac7b6U, 0xbe176d2c3e3b9060U, 0xbe05443d3e3cd8c8U,
  0xbe89c0363d0f61ceU, 0xbdaa83abbe1be52bU, 0xbcbaebc7bea9278dU, 0x3e62b590be9a1d6aU,
  0x3d9b35093da89f5cU, 0x3cddce7a3e854b87U, 0xbe8264013e00ed9dU, 0x3e31b3f13d83dba8U,
  0x3c7263b23aa6d878U, 0x3e10040dbe771e92U, 0x3e61b765be3badf3U, 0xbea9d2c4be3aa39fU,
  0x3d903cdabc7091e7U, 0x3e16c2f33d7f6463U, 0x3b9829e6be5218f4U, 0xbdbca2d9be838081U,
  0x3d7961f83dd40ad2U, 0xbcc1a6e53e343d04U, 0xbc8102d73d00c962U, 0x3cb16311bd948c9bU,
  0x3e756210bdf98d4bU, 0xbe3b26dbbd73bebeU, 0xbddd69af3dc67110U, 0x3d079d463e671440U,
  0xbe3219b6bd06dbebU, 0xbe845f043cc705e4U, 0x3dd123debba5b1baU, 0x3dbe31503e1fc32eU,
  0xbdc2be653d57877dU, 0xbe36aebabdb2e4d8U, 0x3e3a73db3e168b4dU, 0xbdec2922beaf3f14U,
  0xbdc8ba75bee8c78fU, 0xbd2735c0bc8a5f61U, 0x3d887609be271023U, 0xbe2aa0c23d2b5c85U,
  0x3bfa95b8bd338be8U, 0xbba9768dbe0078afU, 0xbe3625fd3e96f388U, 0x3e84613bbed0f045U,
  0xbeaf573ebe88813cU, 0xbe50b65c3dcbe48eU, 0xbeb98a6bbdaba7cbU, 0xbbc4b7ae3eb3de2cU,
  0xbe9bf753beca4a8aU, 0xbef43c3b3dd86007U, 0xbda136413d9e625aU, 0x3ebf533e3e08a39fU,
  0xbe9bff99be98e270U, 0xbc8800593e0c22fdU, 0x3ec6ed0d3ea8bdccU, 0xbe7e260dbd513dc6U,
  0x3e8084583ec6f265U, 0xbeb097bfbe0cdfb3U, 0xbd51fd42bd4ca864U, 0x3e0451e43daa6e72U,
  0xbdee1d57bd7da0b8U, 0x3e59aba03dec72baU, 0xbda1eac93dac8232U, 0x3e8705a0be4f3f66U,
  0x3e8d201cbd0e086cU, 0x3e4dda3abd459daaU, 0xbdbdf4cb3e9c1614U, 0xbd2308ea3e93dbffU,
  0xbe32649abe7109acU, 0x3e582c953d65dcd0U, 0x3eb312753e025bb4U, 0x3e2c7541bd26cae4U,
  0x3e97796a3e96f7f8U, 0x3e12b4b13c805709U, 0x3da3d8903d6b9605U, 0xbd946e7abe2dc507U,
  0x3edcfd523d43cabbU, 0x3e091f943a841af8U, 0x3e87ab033c24879eU, 0xbe3c306dbe3aeeb7U,
  0xbdd7e9dbbd0653c7U, 0x3d76ddc4bd63ab47U, 0xbc83bf1c3db88a56U, 0x3e9d00e4bef94f95U,
  0x3e7d8d11bdaaf6f5U, 0xbe367c09bcb89cfeU, 0xbe446441be5c48dbU, 0xbec2b734be168909U,
  0xbe8e1a98bddaf48dU, 0x3d87f83c39cc1f49U, 0x3ebe08823ead4855U, 0x3e4235d8be457e37U,
  0x3d60721d3c910f93U, 0x3ec6b9473e2582e0U, 0x3e8cc8543e8d064fU, 0x3da818493e6672edU,
  0xbe812ac53e4fd543U, 0xbda6a5c7be965734U, 0xbe1038f13eae490bU, 0x3e841fdcbee89dcfU,
  0x3ea8377cbe3a582aU, 0x3d9d3785bea6fed2U, 0xbe8a34bcbeb4868fU, 0xbe3f86553deb6dccU,
  0x3e35b1103d1d3268U, 0xbe74c92dbf1e7731U, 0xbe2ef0e0be99071aU, 0x3e139951bf0747baU,
  0x3d8a6f0d3ddebb25U, 0xbd9f099f3e6af98bU, 0x3d7a06c4bd934e2eU, 0x3e234ce03d5a8311U,
  0xbd4f4119bda3f785U, 0x3d9e9300be9b815eU, 0xbe8496693e351c7cU, 0xbdfd081c3e96085aU,
  0xbd6e8ba03e508300U, 0xbded9e8dbd5d80d9U, 0x3e62c42d3e73ae20U, 0xbd941d863e345c7dU,
  0x3d34ecbabd985bd5U, 0x3eb45bd5bd99f0e8U, 0xbd7a42afbd9409f3U, 0xbe4dba86bd1ae108U,
  0x3e9e70a03ed18ed0U, 0xbc031d843d0ecacaU, 0xbd8a60fcbe4863e9U, 0x3e2d1a26bd4c584fU,
  0x3e87ac7a3d8c9b71U, 0x3d9836b73e64fa6dU, 0xbe0060113c8243b5U, 0xbe1b4d1e3e43f88bU,
  0x3e1eaa98bea8f1c2U, 0xbd5482bd3e5c1399U, 0xbdb3e5953daa30ceU, 0xbe665fd13d8e2499U,
  0x3eae06e6bd82e230U, 0x3c9106f3be092ce8U, 0xbbf598a1bd53e159U, 0x3c751fda3e89d29aU,
  0x3cdf07f33d21d7ebU, 0x3e0eb6273e29ea61U, 0x3e0986dc3e1aa7c1U, 0xbe059308bd5ee531U,
  0xbe5f608b3e418d6eU, 0x3bf10bdfbdf3e6e4U, 0x3d9d2e74bebfb254U, 0xbe466297becfebfdU,
  0x3e25184cbe10bf68U, 0x3e26230cbe276be0U, 0x3e23d8fabe5fd4b5U, 0xbd20c767bad87612U,
  0xbe84730ebd590b8bU, 0xbe9ace423e6d3a4eU, 0x3e0ac88cbd87c518U, 0xbe78b67bbd9c6b0cU,
  0x3eb6593f3ddf799eU, 0xbeb26d59be50cbe5U, 0x3c018dd3bd85f373U, 0xbe36a85d3d8f3d8aU,
  0x3eafdf3ebeb31533U, 0x3c35e435be172e48U, 0x3d07d4433d973a2dU, 0x3c4cd6473e17e461U,
  0x3e43d953bd0ab45eU, 0x3ecc5ad63dea0186U, 0x3e69df20bd2f7d5eU, 0xbe832b7abd206e2bU,
  0xbdca17493ed86303U, 0x3da4f116be2d055cU, 0x3e94fdf33e61dabaU, 0xbdcc3d5fbe793187U,
  0xbe58b8df3e2dfed1U, 0x3bd0c1893e354b3aU, 0x3e01768fbd22842cU, 0xbe6f40493e247231U,
  0x3c8bb5d53d6872e6U, 0x3db5453fbdabaeb2U, 0x3e0c5cefbdb12c35U, 0x3d9b4babbeb13468U,
  0x3c8592773ec8fb08U, 0xbe39e4923dc4c493U, 0xbdd1432e3d646347U, 0x3a8d3c39be3ec59fU,
  0x3c99cbb2bd9a3dacU, 0x3e1ed8893ea4f83bU, 0xbdb7c3623e45e9dfU, 0x3dd26172bc6af762U,
  0xbbcf6f3cbe15e581U, 0x3d19e1953d6fd69eU, 0x3ce5b10c3e2efa83U, 0x3e9cb2babe9a4141U,
  0x3e62c2ecbe44b143U, 0x3dac1e15bdbc36f4U, 0x3c0821543e76bbafU, 0x3d9322f1bdda9978U,
  0xbd4fc466be0eb4ffU, 0x3e4dc555be02e155U, 0xbd911e01bc9c64dfU, 0x3ceb26a03e3fa990U,
  0x3cb5a06ebdd95204U, 0x3cedbb233d8aa7bbU, 0xbe4ef6123e25a3c4U, 0x3e9f4c14be75dcc0U,
  0xbd24244ebe230358U, 0x3e6415663db87b84U, 0xbe3cc549bd539766U, 0xbea34260be6bf0cdU,
  0xbe9e2652bbf98d12U, 0x3e825ba83e49b785U, 0xbe7dcc73be314461U, 0x3df371243e1fb567U,
  0x3e34625fbc3185c2U, 0xbdd16724bd4f9a20U, 0x3e02307c3ea2cfa1U, 0x3e326dffbe012685U,
  0x3e2562d53b7b5b88U, 0xbdd6ef343ea8ff1dU, 0xbecbbc553d3d7dd9U, 0x3d4353873d477627U,
  0x3d578938bcd333abU, 0x3e6717e3be097878U, 0xbde40d0cbe6f508cU, 0x3e1acdd63eafec9dU,
  0x3ee1ce7cbc0835dfU, 0xbdff68c33dc073d2U, 0xba744cd1bd53c6b4U, 0x3d78d5403da7dc61U,
  0xbe150844bd8bb9a9U, 0xbc00a7363ecc8af8U, 0xbe6a6ae1bea367e4U, 0xbe6bcdfb3d34251bU,
  0xbddd61d6be171116U, 0x3d6975833eb5b32fU, 0x3df3ac523dd4e530U, 0x3de97fb63d4365efU,
  0xbe851095becbcf90U, 0xbe09c69b3e34e9e0U, 0xbdf02ad23eb5dd4bU, 0x3e239cfabed11644U,
  0xbd1f989f3db2199cU, 0xbe813932bd988f7eU, 0x3d27be2a3e5bb37bU, 0x3d8e1fdcbd376ed1U,
  0xbe1e0acf3da289a6U, 0xbcb3f17e3eb4d9beU, 0xbde41a6f3e7b234aU, 0xbe12bfb2bd814cadU,
  0x3c7702b63d29a35aU, 0xbe67c77bbe7a3664U, 0x3d1bfaa6bd2d8c12U, 0x3ddfde66bd2f52d6U,
  0xbd58dc633e86cad6U, 0xbdaaa4d1be146615U, 0xbdc0b089be3e313fU, 0x3e275837be3e98a7U,
  0x3e41649d3e73aa86U, 0xbd413b03be0883f9U, 0xbddd543f3d4f18daU, 0xbc236522be95c5bdU,
  0xbe6527443c39c2c9U, 0x3e092525be21aaeaU, 0xbe0812f2bda76551U, 0xbc1c5596be1b0e62U,
  0xbe840a973e64148dU, 0x3e2f549b3cef5affU, 0xbe070c62bd94f5a9U, 0x3e167ac63e688941U,
  0xbe672a19bd050113U, 0x3ec557e3bd85dca3U, 0xbdeaff35be8e89e7U, 0xbf01b049beab7658U,
  0xbd2cd99abd40bea1U, 0x3e72646c3e35b5c1U, 0x3c86c2babe8abfe6U, 0xbe7e8191bcdda5c1U,
  0xbe29651b3d505ba5U, 0xbe88cc693be60caeU, 0x3ddeb4ea3de4a901U, 0xbdc1a73d3e8b3faeU,
  0x3dc207a3beea0e9cU, 0xbd9a61c53d3f8394U, 0xbb4b6d663dbce1b5U, 0xbe3eda0c3e6fa0fbU,
  0xbd4b7ab3bd2ef5f0U, 0x3d99c0bebe4092e7U, 0xbd89388e3cb8ebdcU, 0x3eeedfac3d29de33U,
  0xbdf242b4be480773U, 0x3df835be3d468899U, 0xbd2ebbce3e23f311U, 0x3e1d82dd3e7fd1f7U,
  0x3e8aef673e826929U, 0xbe8e94063e8302eaU, 0xbbf139a4bdf609c5U, 0x3e4bf17c3d890ef8U,
  0xbe60612f3c845d0bU, 0x3e4a36fa3df9f749U, 0x3d40cae33ce4eb30U, 0xbedbadbb3e53240dU,
  0x3d851c103ce6877dU, 0xbe680578beb9e648U, 0xbe2d6eaabc532115U, 0x3d9ab9b2be5e8cc6U,
  0x3dc32c10be5f1eb5U, 0xbe0734d63e3310d4U, 0x3d7992fbbdd04c78U, 0xbe0e82b4beccbd10U,
  0xbde432eb3ece1f25U, 0xbde21dc23d887179U, 0x3e57c4a33a36b74eU, 0x3e1b3d77be524eb9U,
  0x3e4a6303be382036U, 0xbb9e8a17beafdce5U, 0x3e0d50e43ecc0fa4U, 0x3ea4f1483ce8d736U,
  0xbe42a9643ba85101U, 0xbe79d20e3e4f8aecU, 0x3e70800bbe56edb0U, 0x3e958ec03cfa7b7cU,
  0xbe2285e63ef82b5dU, 0x3be332563d8cc607U, 0x3d6f8a433dc2ffa9U, 0xbe5dbe463d9fd4d0U,
  0xbd4bfa9fbd5031d1U, 0x3ea67baebe4863f1U, 0xbe8818403eb710a0U, 0x3e5f00b3be056e03U,
  0x3d88bc94be805643U, 0x3cab29efbd6be744U, 0x3e92543d3e3d854cU, 0xbe3b965dbe89ad7eU,
  0x3ea296b4be54f1f2U, 0x3d794b623dbb0b3cU, 0x3ea83d523d1c339cU, 0xbe013a03beffd226U,
  0x3e1546d0bea20b54U, 0x3e89cbdbbe25057fU, 0x3e8be58fbd88f62dU, 0xbe1e3fc03d8bbb64U,
  0xbdee74d0be0f20b2U, 0xbdb0bd993e3316a5U, 0x3b8e9a28be631174U, 0x3e9d3361be329c44U,
  0xbe100522be4ab908U, 0x3e22f2943db4852cU, 0x3d6a891d3d02b1f2U, 0x3e33cca3bd7ecfecU,
  0xbe5f4cfe3dc764ceU, 0xbe2cb720be08d3e7U, 0xbc469affbeaafa69U, 0x3dc1fb52be3013b5U,
  0x3e9e3f473d70c176U, 0xbecc85f1bdbf11cdU, 0x3ec22cccbe9262d2U, 0xbc59971e3cf6ce90U,
  0xbdfcedf8be072be8U, 0xbdb5badabdd726e0U, 0x3e7cac063d63222cU, 0x3d890c78bc8e9fe6U,
  0x3e83217a3dea679cU, 0xbe66ea6b3d123dc4U, 0x3daa99433bc33a8bU, 0x3d6d3385bcaeeb34U,
  0x3c5768a03e1474cdU, 0x3d82b83cbe0002ceU, 0xbd39f16ebd2b9c93U, 0xbccddcb33ddbce6eU,
  0x3c5b4e0b3dd751b4U, 0xbd97156dbdbc0ee9U, 0x3e64d4603e33f62cU, 0x3e6defc13e395cceU,
  0xbbc8245bbc96cd43U, 0xbde47deabced77beU, 0x3e3796413e534a56U, 0xbc97626a3e2ab43dU,
  0x3b6063af3ecc1c1cU, 0x3d90c2ae3ddd875fU, 0x3e10fd363d3bbc3eU, 0x3c995a983e8ec9e2U,
  0x3d1bdec13e214f4fU, 0xbe56f1cdbd1dc8c6U, 0x3dcc2ae43e14baccU, 0x3e4fb688bd8e896eU,
  0x3be2f356bb01d976U, 0x3e8eeb0cbe32a128U, 0x3d8a5d963c655538U, 0xbdfc2b03bc8dac85U,
  0x3ddc65313e042c38U, 0x3d65086ebe24478fU, 0x3b8428dfbdb6590fU, 0xbdda82f2bd20b342U,
  0x3d47cffb3c167853U, 0x3e07274ebd0ab660U, 0xbd6ded3ebd8f397cU, 0xbd69d1a93d0f9235U,
  0x3e89ea1cbe9b7daaU, 0x3e80f3bbbd8a8bddU, 0xbe23614b3eadea27U, 0x3e6894b4be347df7U,
  0x3eea0c29bd9382a8U, 0xbc252816bd5e66c9U, 0x3e9d9cf6bb46c25aU, 0x3eb42395be87f90cU,
  0x3d0835a3be607768U, 0xbdb9dd3e3da7fafbU, 0x3d929433be4ac61dU, 0x3ddf0ec6beaf3c1aU,
  0x3ea1b0823dd225d3U, 0x3e9422c7bdcf929dU, 0xbd8140953e44f882U, 0xbdc468513d945596U,
  0x3e9732a9bec8c261U, 0xbe0004d9befc38c0U, 0xbe63a6c43e94164eU, 0x3e9f9c7ebeb3f7e9U,
  0xbd5807d13e01f8edU, 0xbd599ea7be3129e8U, 0xbe58e085bc8abffeU, 0x3d9764373e95d88dU,
  0xbca91b32be8c20e6U, 0xbb0d074cbe60fa60U, 0x3e054684be240426U, 0xbd1ccb653e1fe6edU,
  0x3eadebbfbdf49d9dU, 0xbed403ecbddc7d56U, 0x3cb1f80b3e05ff65U, 0x3e53033abe0cd4efU,
  0x3dd70311bde8855dU, 0x3e84c9d5bdda8f7aU, 0x3e9b5872be58d5a3U, 0xbe31a55abe633a2dU,
  0x3e3a83963eba5c97U, 0xbd2e245fbe84d2beU, 0x3e46aad43c0535fbU, 0xbdb789c5bdcdb88eU,
  0xbc51a6383d617cb4U, 0x3cddac013e6f8846U, 0x3e93b94e3de34e74U, 0x3c1526f9bcd2a23fU,
  0x3e94d8acbd8eaf23U, 0xbeb234dfbe4d34d2U, 0xbe14747cbeb863b8U, 0x3eb1026d3ea04e5dU,
  0xbe7c7fee3e92bf38U, 0x3e2d079abe3ce8d9U, 0xbe03ec1fbe8851d2U, 0xbe2930dabe0036b2U,
  0xbe0cd76dbd8b8978U, 0x3d7a2695be762bf4U, 0xbd93ee0ebe2343e4U, 0xbe2871023eea9cc3U,
  0xbd0a1ab4bef20b39U, 0xbe2ca0863d82aa22U, 0x3d033935bcff2db0U, 0x3de3e86e3d366629U,
  0x3dea31aebe1326e2U, 0x3ed99232bcf08b76U, 0xbcc24e3f3e79bd92U, 0xbe2f26093dab2fb0U,
  0x3e5520b23ea500ecU, 0xbe3854843d50830cU, 0x3e97f7553d0318d5U, 0x3da15c1a3de84128U,
  0x3e4290883ddf6caaU, 0xbe6a4b2ebcbc453dU, 0x3df16cd6be71a421U, 0xbe3b2ac23e2331bbU,
  0x3e3c0dc1bd0ae01fU, 0xbcaad6103e216019U, 0x3e31d95cbe81f472U, 0x3da0185ebc0d8575U,
  0xbe368ab73d813af3U, 0xbe61d77f3ca7d558U, 0x3e3d6e90bcd6c7fdU, 0x3e88fc5dbea4de61U,
  0x3e1da148be0dd148U, 0xbd02b5a83cd715c0U, 0x3d78d2c3bd808512U, 0xbd5142f2be85a01bU,
  0x3d894c2a3d8164e0U, 0xbe25af1cbdd7e25fU, 0xbe4c2cbbbc1251cfU, 0xbd9aa417be185f77U,
  0x3e830f2fbe373e50U, 0x3dd8c3fd3e05c848U, 0x3dc8f2ecbdb974c4U, 0xbda5b6ca3e3e0ab0U,
  0xbe08250cbd5694d9U, 0x3d06556f3d6cf0efU, 0xbe0440523e1ed685U, 0xbd8ccff93e80f886U,
  0x3cb857073ddb548fU, 0x3e3127373e85717fU, 0x3e142844bd1908f5U, 0xbecdc0243e05ce56U,
  0xbda244b1be40d162U, 0xbd8f7c533e81182dU, 0x3e0592b83e922edaU, 0x3e8d7be3be016404U,
  0x3c4fa2a43d56e09bU, 0xbcba8de63e5b634fU, 0x3e070bdebda75552U, 0xbe4ec8d43b859823U,
  0x3e1faf143dbd28b5U, 0xbdb132abbdee80ffU, 0xbdd264d2be26baceU, 0xbdc5b1013e4b400dU,
  0xbdf0ca693e6a40cbU, 0xbc8d38cdbe2a93fbU, 0x3ef7d8873e1ae198U, 0xbd5fd610be2cb0f0U,
  0x3db7ef513e8172a1U, 0xbce90f603e11e0fcU, 0x3dbb5fdabe37c835U, 0xbe0e43b33c17ec52U,
  0x3e8849753dde3358U, 0xbd4a4ec33dda64b9U, 0x3d312190bc308c53U, 0x3e0e17bbbcd08aeaU,
  0x3e5ada323da4bf24U, 0xbd0ed449bc8eb5aaU, 0x3e1c8521be04258aU, 0xbd2ca1bc3dbd212fU,
  0xbd52421fbe1337e5U, 0xbd4902a1bd8f7a52U, 0x3ca7e66e3c148c61U, 0xbae4992f3e92969bU,
  0x3e00dc273e26f4a0U, 0x3eb73295be726c98U, 0xbdd62d7bbe64d876U, 0xbe95c63fbd5e0a11U,
  0x3dbe0f87be139d1dU, 0x3e306e6ebd9f54d1U, 0x3d1af225bde59ad8U, 0x3e9d0914be229d5cU,
  0xbe17c17d3d847cc1U, 0x3ce6b37b3e2974fcU, 0xbe767c26bdebd24cU, 0x3dd89003bdd4bd7cU,
  0x3e782e813b3ad3f0U, 0x3e85118cbe3ae786U, 0xbb9f89a93d7749caU, 0x3ea12fa63e3f5455U,
  0xbcb7c4b83d32f9f0U, 0xbde4aaec3d964d89U, 0xbdcf0b94be2cdf77U, 0xbe916a8fbd8d5aeaU,
  0x3dc0bc783e1a395aU, 0xbe0500f73dcdc006U, 0x3dd5cc6b3dfffb72U, 0xbe863f223d9e46daU,
  0xbd613c573e35cbbfU, 0x3ba35390bd2a7c91U, 0xbe7d162d3db05bf4U, 0xbe7aba1f3e00a152U,
  0x3de2849a3e1ccce3U, 0x3e32a3e5be8b3b46U, 0xbd5ab275be7fa355U, 0x3dab4aebbe2704d0U,
  0x3d0316033e3559a4U, 0x3e6ef8c9be076ae4U, 0x3e9648d33ea83fedU, 0x3e024df4bdae38caU,
  0xbce41128be9d3971U, 0xbe0235aa3e2882cbU, 0x3e53f5ce3e6e6c99U, 0xbd1634a9bd72c10dU,
  0x3ea7e837bc65a561U, 0x3db439ff3a4d7dbfU, 0xbe94dfb7be50bfeeU, 0xbdde90963e307cefU,
  0x3e3016b6beb4d9e5U, 0x3e771ecebdf0e0ceU, 0x3d762dcdbe1e5abbU, 0x3d876c9bbdd01c07U,
  0x3e85556f3cd62287U, 0x3e3f98b2bd472c7aU, 0x3e820153beb08687U, 0xbe7651f13e5e17a6U,
  0x3e7039b13c2f2badU, 0x3ddc2ae2be79d625U, 0x3e0016afbe0a2f27U, 0xbe537cb63e251c44U,
  0x3e4d4eb63c4b9bebU, 0xbdec42a73e87e2f9U, 0x3e159a143d107320U, 0x3e40c4a33b606503U,
  0x3c0ccb40be2fb6c3U, 0xbe8589f43ec30301U, 0xbdcea8f73acfe1e5U, 0x3e47f082bd417d1bU,
  0xbe2d489f3e9bb6a8U, 0xbe5fd0513991d802U, 0x3d6d8526be0ec1a7U, 0x3dc31c52be6069c2U,
  0x3e963a273cff3708U, 0xbe9890a2be32370aU, 0x3d7d2175be0a48dcU, 0xbd666dc4beb316a9U,
  0x3e48db26bd3443b8U, 0x3def776b3e869620U, 0x3e810cb9bccfa5beU, 0xbd167911bdb87714U,
  0x3d8d2e163e8684f7U, 0x3be0bbcb3dac06e1U, 0xbc8aef6fbd3182c2U, 0x3dd7b1de3e4939fcU,
  0xbdb455e33dc718c6U, 0x3e3d6abe3e195332U, 0x3e751f98bed0e6e2U, 0xbe31c3ad3e86a69fU,
  0xbdb7b8523d96f604U, 0x3eb13debbd33dbd6U, 0x3dd369c9be2d42ebU, 0xbc7b1cc93cdd9be7U,
  0xbcb71fa03d7bcadfU, 0xbdc9c06d3dc2516cU, 0xbdf3cc1ebd8f98f6U, 0xbd3a6773bcdf82e5U,
  0xbda806ff3d24d934U, 0xbdae0308bd942b82U, 0x3e40b17fbd69bc9aU, 0xbce4ec0c3e01162eU,
  0xbdf0729d3dabfb66U, 0xbde154c5be0aaa29U, 0xbda3c4eebded1abfU, 0xbe237eee3d023f88U,
  0xbd8cf0bdbe12afcaU, 0xbd13249a3cf865aeU, 0x3dac13c2bdc3f8d6U, 0xbe8d1494be1d36d0U,
  0xbdbe8e32bcc756dcU, 0xbdadc649bdafd625U, 0xbda82149bd87bc53U, 0xbe46a701bdbebcceU,
  0xbd14ab14be1cb4afU, 0xbe5c9d643df8691dU, 0x3bc33d73bda792e8U, 0x3e0a59a8be46393dU,
  0xbdadbbb43d2f52a5U, 0xbdb68fee3c8e0d9cU, 0x3dff0072bd5c3c9eU, 0xbdbb44d5bc9aaf9aU,
  0x3da5a1a7bdb6cac7U, 0x3d86e645be596f1cU, 0x3d61a122bdf60754U, 0x3da77782bcb1c6a8U,
  0x3e24a706bda6297bU, 0xbc6e85f83be4413cU, 0xbe00ca84be7adaa8U, 0xbe55e2a43d769addU,
  0x3d890d4cbe9f2962U, 0xbd96bf0739f477b3U, 0x3da479313dc573bfU, 0x3db107443e35b9ffU,
  0x3e385b3c3e8247d6U, 0xbdf05876be702ee0U, 0xbc8ec03bbdc58bc4U, 0x3ea4da6f3e5c996dU,
  0x3e6b0deb3e3bcbc1U, 0xbd3c2345bdaa2e6aU, 0xbda2da47be784b88U, 0x3e13e2f3bd860882U,
  0x3ecec7593e12c238U, 0x3e52547abd023254U, 0xbe9b23273e85f1e5U, 0x3e481f0e3e5d88a5U,
  0x3e1a92f6be2876deU, 0x3c47fea23ea2a7b3U, 0xbe60e042be24512fU, 0xbd116615be9eb7f7U,
  0xbd3e991ebd24717dU, 0x3e44a06dbe9e0d14U, 0xbe4c46c4bed6982dU, 0x3c2eeb1e3cac3be4U,
  0xbdfb73dcbd0ed935U, 0x3c16c2623ddc69d7U, 0xbde4f590bdb43fc2U, 0xbe847241be380dabU,
  0x3ed86d683e6cb2eeU, 0x3ecf3c1abe3fc117U, 0x3e500889bedce4c9U, 0xbe11cf56beaf751cU,
  0xbd4ab0873ebe7e10U, 0x3e3d975a3dd301afU, 0xbe3a6dae3dbfa17aU, 0x3de685b4be23002bU,
  0xbdd12fb83eb40acdU, 0x3e260a28bdab2bbaU, 0x3e0fcf2dbc0d66dfU, 0x3cf53c483e9a0f53U,
  0x3d87f64cbea0d569U, 0xbe30703dbd93724cU, 0x3e8b8724bf0b5aebU, 0x3eebde3b3e96b751U,
  0x3d81c5f4be5d5aefU, 0xbe268fd7be9b07d5U, 0x3e1fa86e3ed5e28bU, 0x3cceab17be5db2c9U,
  0xbd6d869e3d09b6c5U, 0x3e42c4fa3f17c6ebU, 0xbb806ac6bddb802dU, 0xbd0805f33d6fe5f2U,
  0x3cfc76de3de1d387U, 0xbde168963ddbdadaU, 0x3e965d8f3d907587U, 0xbe08264ebcd41554U,
  0xbcd8ba60bdaa92beU, 0xbdd777c93eba2655U, 0x3dead126be58827cU, 0xbc9ef029bf0039c3U,
  0x3d1e77f13d97d344U, 0x3e907ef13e326516U, 0x3e07bcb1be06b7f6U, 0x3db938123e1137b0U,
  0xbcc22a71bd9d172dU, 0x3d688e3b3d16103eU, 0xbec5f135be09d099U, 0xbe997dc63a20a9a8U,
  0xbec45fafbd29bc11U, 0x3e9c7f08bd223d25U, 0xbdec7c29be3e6b87U, 0x3d021d4e3e8dffacU,
  0x3e2d44c33e4b16f5U, 0xbda50879be5af3e6U, 0x3d46080c3ea4bf77U, 0xbe8b6cb1bdf918e2U,
  0x3e8f61183de3489dU, 0x3e013738bd7f7fd1U, 0xbe2f0d8ebde62c8cU, 0xbd91f6a03d02bc63U,
  0x3e060a713cb14728U, 0x3eabd0c13d866933U, 0xbccd2d00be61cab6U, 0xbdd3610bbdac2840U,
  0xbe3f57933e66830cU, 0x3e1383e9be5f375dU, 0xbcb9fb59be104583U, 0xbc3ad5823d997870U,
  0x3de34f893dbc60ccU, 0x3e3a47a43ddb2ec3U, 0xbe984d03be4351c5U, 0xbe0469f53e5cd131U,
  0x3b89ee7ebe5f2a47U, 0xbe02accabe44bbe4U, 0x3e83775abd82298bU, 0x3da628293dc772d3U,
  0x3dfde7d63c4bda8cU, 0x3e88dee0bdc7ab3dU, 0xbe2b8d3c3e18c14bU, 0xbe8f3fa9bde0e50aU,
  0xbd804d183d9194bdU, 0xbde2dc8ebe188911U, 0x3e251b76bd9f5f8cU, 0x3e0e4e913e7dbc01U,
  0x3ceabebbbe00a809U, 0xbe341f423d0d441fU, 0x3cb522023dcc7320U, 0xbdd2cd40bed9347eU,
  0xbd9ab10bbe04a17bU, 0xbdf1b43f3bc00b79U, 0x3d1816babd2a3314U, 0xbd3370ba3d8afa26U,
  0xbd1fe993bea4cfbdU, 0x3e47ca493d6c5e98U, 0xbe871a563e8f3e98U, 0x3e44e92bbe6b6a51U,
  0xbea730c13e2898a0U, 0x3e4eadd73e724c76U, 0xbda23fd9bdc8d8acU, 0x3d6510aabd092341U,
  0x3d4b32653e62d9d0U, 0xbe0691583e83c5dbU, 0x3d3e09b8be9ff722U, 0x3e35362dbcd1fd15U,
  0xbe7ff6b03ce241e4U, 0x3e3a085d3dd74d9fU, 0x3e24ad04bdfff8a6U, 0x3e342b30be10fdb8U,
  0xbe177336bd4fe424U, 0x3d3fcd79be884d1bU, 0x3c2b8b2f3d3363f3U, 0xbdcfdc8dbe413902U,
  0x3e4ee6a73e2c981fU, 0x3e8e47a93dec21afU, 0x3e60b25e3ea4f291U, 0x3eacad5a3e39ec84U,
  0x3e98af123e2639caU, 0x3d5ce1953dddfbc1U, 0xbe1839c73c54eca5U, 0xbdb9e5ac3dbe3f2dU,
  0x3cc534df3e1d1c02U, 0x3e49441dbe0bbce6U, 0xbe586f263e33de34U, 0xbd2b1e0abe1994a4U,
  0x3d55e8c7bdd61eccU, 0x3e3b4b513dc2ee5dU, 0xbe6ab27ebe3bc7c2U, 0xbd8c5ef93d972983U,
  0x3e1f737e3dc7cc69U, 0x3e2b6217bc966613U, 0x3d76b594bd92c912U, 0xbcf8a6623e2effb3U,
  0xbe12944d3cbfa252U, 0xbd97d1b3bd29712dU, 0xbe3ac276bd204924U, 0xbca954c6be00db85U,
  0x3e09d83fbda0f8c8U, 0xbdc2cd39bcd31431U, 0x3d509aa03d8d0341U, 0x3e45d3d73e12ba26U,
  0xbd37cb18be7f0c4cU, 0xbd11c3553df1255dU, 0x3ebd6483bd66f010U, 0xbd8fa62ebdadb100U,
  0xbdabe445bdcc3823U, 0x3ebd054ebe7964e0U, 0xbd1f27b03e5d917bU, 0xbebd520b3e19819aU,
  0xbdad66843dbb7906U, 0x3e8fb8c9bd2965feU, 0xbdf4ef773dd900d3U, 0x3e9b2d84be3f3155U,
  0x3e66dc5ebe961ec8U, 0x3e33e34abdc61ceaU, 0xbdcc51db3d3416f1U, 0x3e95bfce3e236557U,
  0x3d707bf4be8d8124U, 0x3eaef29fbda24046U, 0xbd89f8033dd3d65fU, 0x3eddc0a3bd7e8cc2U,
  0xbcaeb0783e996344U, 0x3b9c1a6d3ebc7ff3U, 0xbdce2fc3be9c5adaU, 0x3e6551a1bdeda7b7U,
  0x3e0f1b353eb447e6U, 0xbe3c76bebde141c6U, 0x3e3c59f63ec272e0U, 0xbd33e5b93e8324b4U,
  0x3d8e53f3bda74684U, 0x3d020c8fbeb44f3cU, 0x3d027292bc90c16aU, 0x3ec32e9a3e29cc14U,
  0x3c0221323ecee253U, 0xbdb10347be84147aU, 0x3cba06973d059e3fU, 0x3e712e693db39dafU,
  0x3e66484f3cf49857U, 0x3d226a89bd9b3a58U, 0x3efdc2173c914957U, 0xbe15d288bd6df8c5U,
  0xbdbac443bd8c1239U, 0xbdd623913e247432U, 0xbce091903de68b81U, 0xbf29b6a83e338d03U,
  0x3dd20d6e3e59ca78U, 0x3e8843303df92fc1U, 0x3d9a03153dc6fc14U, 0xbd07669c3d59f216U,
  0xbcba1c7f3dd71905U, 0x3e1b1e36be2f6a4fU, 0x3ea2d6413e0501f9U, 0x3d2d7d813d703518U,
  0x3da2dc65bcc8d438U, 0x3e0d12ea3c775318U, 0x3b8bf865bd5c4568U, 0xbe582b343cdcf23aU,
  0x3e0b8a4c3e6ccd98U, 0xbd5b875cbd8e469aU, 0xbcbf23f23e0fb117U, 0x3c4671323d12bff6U,
  0xbeb7c4b93cc70ba4U, 0x3e1f19fdbe9c00a7U, 0x3e3e56c1bdc0ac33U, 0x3dc48730bd95477bU,
  0x3ddf77d33dc20004U, 0xbe779215bbb8eddeU, 0xbd3326da3ee3071cU, 0x3cc7ab48bd45f78fU,
  0xbe0841223dfbce49U, 0x3b6b4d683e8ea615U, 0x3e18011ebe57bb08U, 0x3de11985be06a9f1U,
  0x3e081b123e389323U, 0x3d5a5006bdb06635U, 0xbeb5b125bbeb9bb4U, 0x3dae07f1bd4895edU,
  0xbe20a074bcd17780U, 0x3d437aabbc159a99U, 0x3b586d7c3cb09bc9U, 0x3e5fc98fbccdaf60U,
  0xbe3c5d62bd6e0c74U, 0xbe6d6d0d3f160f3cU, 0x3da061acbd62a8d7U, 0x3c877504bd07b4c0U,
  0xbdc5d4213e03b56fU, 0x3dd8005b3dcc7551U, 0x3e86f69e3e1c1b9dU, 0xbe64b6d63a32b9baU,
  0x3e31b3c73e89df0cU, 0xbe5a05e4be10dc52U, 0xbc92ae003c01bc52U, 0x3d8fe739beb473cbU,
  0x3dcf3283bd75d612U, 0xbd4914d73db4e16cU, 0x3b335fd0bda7d6f7U, 0xbe1b97bcbdc62b2eU,
  0xbe03ff163e8897eaU, 0x3e15c2673d516e6cU, 0xbe163ad73d7375fcU, 0xbe9709bd3ea64194U,
  0x3e2307ed3ed55c42U, 0x3e30f281be6924cdU, 0xbec03044be8048c4U, 0xbe8bf51a3ed2adffU,
  0xbd8779fe3e21995eU, 0x3ea7bdfe3e3e1546U, 0x3d96c3fcbc9e2194U, 0x3d6eed63bc931b64U,
  0xbe9c105a3debb059U, 0x3e0ace84bca8603cU, 0xbe3a2083bd50dd9cU, 0x3eb032bd3dd2e72aU,
  0xbe8ef425bde2a0a7U, 0x3e1d9bf6beafc450U, 0xbc895805bdbb70ceU, 0x3d713460bce9cdbcU,
  0xbbcf34cdbe4e9e01U, 0x3c844e5a3e077934U, 0x3e6e35293db69eedU, 0x3d1f1cca3e2a90deU,
  0xbcafcb0e3d6daf88U, 0x3e73cc0bbd52070cU, 0x3dd4155dbeca8844U, 0xbe3fa1ff3ee77103U,
  0x3ebaa829bdceb18cU, 0x3e0c2801be2f07a7U, 0x3d3d5bae3e20e8feU, 0x3eb1ee743e7e359aU,
  0xbd3ca0a1bebbb6a2U, 0xbdfe485ebe9eaaebU, 0x3c7d5dd53eb75c23U, 0x3eb1aa323e2a35ffU,
  0x3ede3235be446833U, 0x3de9892b3d9ee308U, 0xbe979d37be079bddU, 0x3dc651e4b94edce3U,
  0xbeb744a53cd82208U, 0x3e1036fbbe2acc30U, 0xbec06d023db13b18U, 0x3c4489f1be505022U,
  0x3d586c043e0fb2ddU, 0x3de86333be17cb0bU, 0xbe214e01beaddf8cU, 0x3e003915bc851125U,
  0x3db5356dbead6195U, 0xbc3f0239be015c50U, 0xbbc9bae9bd9cc8b7U, 0x3d1583423daaba00U,
  0xbe2e2e93bd58e2ddU, 0xbdab8b6c3e324326U, 0x3e31df16bde0260cU, 0xbe60549d3e90e3fcU,
  0xbd422ee43d5ba12bU, 0xbdd03d243e92e09dU, 0x3d88b644be0230c5U, 0x3a1bf659be30360eU,
  0x3d935492be56c79fU, 0xbcf660afb91efed7U, 0x3dc44c123d66eb11U, 0x3e93f7bbbdd0e76bU,
  0x3e111c313da5f6f2U, 0x3d15b9ac3e48527eU, 0x3e5ae0dabd34c885U, 0xbeaae879be25879eU,
  0x3d82fa8cbe9a57cbU, 0x3e217fd03e8b4b02U, 0x3e86cf843e9033b3U, 0x3e22ce77be2ca8e3U,
  0xbc2616f93e1694deU, 0xbdbba159bd119d7aU, 0x3d990898bd5a75f2U, 0xbd27ee2a3c5477d9U,
  0x3e0146623e31a650U, 0xbdbf509d3e760356U, 0x3e448fb03d32dfdaU, 0x3dcab5d8be2470e1U,
  0xbe476ef43e030324U, 0x3e3c7da6be0a805dU, 0x3e30183d3de7f93aU, 0xbe6830c7bc6e9d6dU,
  0xbd7afa4bbe9ef9bdU, 0xbcff1d69be436c91U, 0x3d9203fabe80b1e2U, 0x3e524740bd4dd3c0U,
  0x3dbdc2643e0e61d9U, 0xbe2c5515bd9481baU, 0x3b76b755bc6fb4d0U, 0xbeb9784cbcce47b8U,
  0x3e98984abe0658b5U, 0xbdf31877bdd3a0e5U, 0x3ea959bc3e22016bU, 0x3e26b27d3ac094ffU,
  0x3e4b9dae3e3aeec0U, 0x3e2713f03d2557e8U, 0x3e92dfca3edec0bfU, 0x3e270a233cb4687fU,
  0xbd3ba39e3ea53f0bU, 0xbcebb34abe5f3c7bU, 0x3daace903df422ebU, 0x3e8af96d3d16d407U,
  0x3e8834e9bc2864b8U, 0xbe237ac8beb990a0U, 0x3de77decbdc544acU, 0x3e8ad3de3dc785f3U,
  0xbe0d142d3ebb15bdU, 0xbd6d9de5be5f8399U, 0xbd890723be0b90adU, 0x3e503f1c3e7ad058U,
  0xbe43569a3e73750bU, 0xbd99e4693d9b53bcU, 0x3de7f210be38676bU, 0x3dda7bf53e3291abU,
  0xbe0ca8fa3c4a819eU, 0x3e07db903e2f4bb2U, 0x3e836c3f3e3f5aa5U, 0xbe8255113d95c459U,
  0xbe8a70ed3e4b86a7U, 0x3e75a09c3df5727cU, 0xbe5fde14bd30e23eU, 0xbe81eaed3a87d726U,
  0x3ec16577bc4aa5fcU, 0x3e868e70bd46e66fU, 0xbe551d9abe91d983U, 0xbe5dc9763e1b67a5U,
  0x3e1d0eb83e8c63eeU, 0xbe1d767dbc8f06cbU, 0x3e0a83bdbca8191dU, 0x3c5289c83e8bab47U,
  0x3df5134ebdd49b6aU, 0xbe1c77cabe028817U, 0x3ce238b43ba4c353U, 0xbe0c2a1abe38d646U,
  0xbe0b8dd6bc294292U, 0x3e0827293cd8a3e0U, 0xbd31aff33d1b5f07U, 0xbd9f2ccf3cd0ca3fU,
  0xbe222abc3d73d758U, 0xbd9fc681be714cdfU, 0x3e80e53a3e6bcf70U, 0x3e2ecd933d901911U,
  0x3e96c9293ddac5f7U, 0x3d86dcd8bea5540cU, 0x3ee273d4be9299eaU, 0x3e8bb5ea3ca88273U,
  0x3dcfd04e3e291f24U, 0xbeaf429ebed69f72U, 0x3de52848be8422bcU, 0xbccbf2053cd11ec7U,
  0xbdbe8f9c3e1dfa03U, 0x3ebbd90dbcd6eb7fU, 0x3e17b8afbd82f8beU, 0xbcc2f702be4f9e10U,
  0x3e5ab9c53ec44081U, 0xbd822e853bf07cb1U, 0x3e0e6f453dca4122U, 0x3e5b9657bef29f47U,
  0x3e7203863df8f91fU, 0xbdf9c3683e99560fU, 0xbdb47781bd61513eU, 0xbe0c9cb1be3b7578U,
  0xbe6999e03e37658fU, 0x3dc78338bddfbffaU, 0x3e79e288be6885f3U, 0xbe7b26dabe1e7e7bU,
  0x3e7341e8be9e92c3U, 0x3d6e42e5bdf88506U, 0xbd71d181bdab1f1dU, 0x3e478c69bcbfb4bbU,
  0x3e967333bdce3958U, 0x3e2fd26f3ebee692U, 0xbde09c62be7097ccU, 0xbd30c90ebda7c244U,
  0xbd4528a8be6d6c01U, 0x3e78c733bc220424U, 0xbe5a903a3e3d1ebfU, 0x3dc8ff44bd0c8714U,
  0xbe6a7a6a3ebe15a7U, 0xbe47517a3e2e6f68U, 0xbbdb60073e0cbce0U, 0x3e4c4f3b3e2d0cc4U,
  0x3e5c791a3ed7eb2dU, 0xbe6c7f05bdb4ac25U, 0x3bd0f4ccbc9fc555U, 0x3e67b6163d2e69ebU,
  0xbde0b765be4929abU, 0x3dce3a33be9edb4fU, 0x3edd1a94bdcc56abU, 0xbe4a780ebc67cf51U,
  0x3dd4bb1b3d2af4a9U, 0x3d91ed33be082878U, 0xbbb400bb3bb85632U, 0xbd87c471bdcd4ed4U,
  0xbdefd7e4bdc5de85U, 0xbe3eaeafbd06903eU, 0xbe1bb908bdb29352U, 0x3dd6b3f9bdd2eb0eU,
  0xbd8c19493c11079aU, 0xbe8ea3ccbd94772cU, 0x3d9f79d63bdef404U, 0xbcb28b4d3e8c4818U,
  0x3daa58de3dd1dfb1U, 0x3df0651e3e1539e6U, 0xbddb0d783d7c8e0eU, 0xbe404fe8be200658U,
  0x3e835d8a3e86f098U, 0x3e5faabe3e2b0baeU, 0x3e07d524be496ac2U, 0x3d69ed1e3c1567dfU,
  0xbd68abccbdc5a06dU, 0x3e1515ecbc55c6b6U, 0x3dad33b43e2b6eafU, 0x3df5953c3e89e803U,
  0x3dd4450f3dac6465U, 0x3ea650fdbd197030U, 0x3d934224bb62f580U, 0x3d86bd213c8627a4U,
  0xbef3bd493e488503U, 0x3e21f2c5be488f27U, 0x3e26e2cb3d76c82dU, 0x3db451fc3e1dc73fU,
  0xbd2d99a5bdf13a83U, 0x3ea7ffd8be016b84U, 0x3e214ebabd48e94cU, 0xbec3df48be0b2b89U,
  0x3cde4214bebbc34aU, 0x3d85c6ca3f0a8457U, 0xbe9165d3beb39ab2U, 0xbd79b1b739bf1a58U,
  0xbd0f22e9bd5b022fU, 0x3d848543be96dcd6U, 0x3d482d1abd8b9750U, 0x3d8299163d41b991U,
  0x3e8b2e4abd321dc7U, 0xbe1cea9abdc0b492U, 0x3d75e3ff3db6f43bU, 0xbe24ab2f3e194ff9U,
  0x3e876e27bdd1212fU, 0x3da77aee3e19da17U, 0xbe6b43483e07e282U, 0x3e2534f13db87778U,
  0x3e0d34ac3d80692cU, 0x3e3e9e543e9d3229U, 0xbe2b07893b2960b1U, 0xbe1696e53e0877fbU,
  0xbe4e8c02bdd5bfeaU, 0x3cedc46c3e0aa610U, 0x3d29d71a3e4a2b01U, 0x3d700eac38d2d6caU,
  0x3e6b536e3e31f8ecU, 0x3d9399453e0ced8eU, 0x3c6824013da017e0U, 0x3dfa82f73e118227U,
  0x3da8fe32bcf87098U, 0xbd149f823e64661fU, 0xbeb60e55be5dfa73U, 0x3d4e5c98bd1121bcU,
  0xbe8bd240bdbb6c80U, 0xbe12ab643d4079b8U, 0x3e4da19abe11dce8U, 0x3e9597ccbc43ee1aU,
  0x3e9d50bdbd2030ecU, 0x3e4d8421beaf2d04U, 0xbe8730debe943ec2U, 0x3d7478edbe264c93U,
  0x3e7b44433cd010c8U, 0x3dcfac9a3e3161c9U, 0xbea3f8afbe0868dbU, 0xbebf737ebd8fdc81U,
  0x3d3143a93df04890U, 0xbec2b9a23dfbe48eU, 0xbd1d1f873e430e8fU, 0xbe22ac60bd8a5d46U,
  0x3bdc5c443eb6ee63U, 0x3e7e8853be5474a4U, 0x3ebcd49b3b80bdf1U, 0xbc981d2f3e2ce476U,
  0x3ea744bf3ed077b0U, 0xbe0afda6bb2d3aeeU, 0xbe3b2900bc316e69U, 0xbe1dd8e7bd9f620dU,
  0x3e251e5d3edd07bbU, 0xbd71bc9dbdd4e37aU, 0xbe2e32993e51fb78U, 0x3e19f2b43c875f65U,
  0x3e3a622c3e2d4347U, 0x3e2d2d6fbe50b771U, 0xbd87bd5b3ddaa6aeU, 0xbd79ea863e9e7fbfU,
  0xbf00e204bea545d8U, 0xbd7f3f573bb3f966U, 0xbe86b2543dd3ce49U, 0xbd0a7787be91880cU,
  0xbe421d5d3e7c6c7dU, 0xbcad5a113e0f47cbU, 0xbe27d5b63e891091U, 0xbe4d598dbd772881U,
  0xbcc9ec3dbd95a848U, 0x3d6e60eabe1d2be5U, 0xbdb6e3c73e38ad99U, 0x3d899d013e5057a4U,
  0x3e190197be45dddfU, 0x3c994fdabdb7b44bU, 0x3c825b7f3e33e846U, 0xbdb43900be259757U,
  0x3d20bf7ebe80ec8dU, 0xbee1c7703e16b43bU, 0x3ccd9aed3e877f47U, 0xbe1f5a95bdf0e7deU,
  0xbe515cbebe564e8bU, 0x3e1c3fc3bec3e3ecU, 0x3df200db3e30c722U, 0x3d4e07a63e8a1d98U,
  0x3e1b177ebceed528U, 0x3d9767283e8f0baeU, 0x3e10f944be28896eU, 0x3da484983e752b07U,
  0x3d04154a3e5aa957U, 0x3ee32c0f3e369eb0U, 0xbc83aec7be5ebf3aU, 0xbe811e1f3e98c462U,
  0xbe9a78f1be2a1bc6U, 0xbd5a18b33e87292cU, 0x3da05b75bdc211dfU, 0xbe3405bebee307e2U,
  0xbdf4daa0bdc39bc5U, 0xbee146f83d4c857cU, 0xbc95be7b3d3c3c5bU, 0x3efe27e9be3c5950U,
  0xbe51deeebd0e540eU, 0xbda2c0443e8477c2U, 0x3ea57a693e2541ecU, 0x3ec5f9853ebdbc61U,
  0x3ec2fa01be25bd67U, 0xbe8c0206beccbdb1U, 0x3ee20d9d3e788847U, 0xbd09e18bbdc8cb4cU,
  0xbe4eac33bd025caeU, 0x3e1db3863e8ca547U, 0x3abb6dd6bec9ee8cU, 0xbe5be4053bce8634U,
  0x3e772ad33cf46460U, 0xbcdc148e3ea9cf15U, 0xbe55c02bbe1a58d7U, 0xbd78086abd9652b6U,
  0x3e07ebcabd75115cU, 0x3dd3f1033e8a3db0U, 0x3e7e9f9ebde5f852U, 0x3e01a72c3e203f22U,
  0xbe7809823dd480f2U, 0x3e5e3606be1e0047U, 0xbe722fa9bd18dbb6U, 0x3e64b5c6bc4c274aU,
  0xbe791f393d91948dU, 0x3da22f0c3baf5f97U, 0x3e46587f3e070e0dU, 0xbd549e903d9edf0aU,
  0xbeac725a3d43b49eU, 0x3e22fdcfbe7ae181U, 0x3e2bff5dbe1b0c60U, 0xbe4bea153dcee861U,
  0x3deaaa103e7c5916U, 0x3e52d4a8be3c8f30U, 0xbe4e27843e5c2a69U, 0xbea4eb6a3e711a04U,
  0x3e2fa102bd7a85edU, 0x3ddc5f4b3eafff57U, 0x3c3fb056bec60de2U, 0x3df69d6b3d7e38c6U,
  0xbe0b0eb4bd12a738U, 0x3ecb4b8f3e482899U, 0x3dd47a9ebd9ad96eU, 0x3ea8a1a03d46eac8U,
  0xbe27f8f73e178b93U, 0xbeaca814bdc33de7U, 0x3e560963bdd2dab5U, 0x3d0e926fbc0ace22U,
  0x3de5f92f3d0e8645U, 0x3e801b96be22161eU, 0xbe119bd8bdf5ffc5U, 0xbe453faabdfe58b7U,
  0x3e4a27d5be37b303U, 0x3da6c4e0bca79bc8U, 0x3e0986993e552376U, 0x3df2d8c53de97ec4U,
  0x3e027ee4bdfbc103U, 0xbbe45cb43d9564feU, 0xbe2b361dbc5a935cU, 0xbe2b3c8ebe28e050U,
  0x3d8e882cbe0f3dd7U, 0x3d0a16afbd832526U, 0x3d6474f4bcf9293dU, 0x3d0303883b25a3d8U,
  0x3e0cacb5bc6bcc5bU, 0xbe230e1d3b3ffd00U, 0xbe22d7fcbd1d2850U, 0x3db187f9bdd54975U,
  0xbd03e3753e1696dcU, 0x3dc0f4ac3e60097bU, 0x3e0f6d403da22f06U, 0xbde5766f3e3ac767U,
  0xbd3fcba23d1dff77U, 0x3c8f1ec8be002e09U, 0xbea2ce48be268184U, 0xbe417c613df40b33U,
  0x3d9b5383bd5578d5U, 0x3e8571debdcba589U, 0xbdfb39f83e88c851U, 0xbdb4eb6abe0369d4U,
  0xbdfd09eebcde548fU, 0x3c35e0c1be4b5169U, 0xbe49926b3e0e2fdaU, 0xbe27ae9abdf7eefbU,
  0xbd9ca4723d03e451U, 0x3dee9e70be02d63dU, 0x3da22bbb3dd519dbU, 0xbcbb99e6be66f22aU,
  0xbe57f9e63e5bebb3U, 0x3e9d41ab3ea7437bU, 0xbe05f744be242d89U, 0xbd71045a3de9416bU,
  0xbea29026bdf52b07U, 0xbc927212be87a9a1U, 0xbdd38fe23c8e1d69U, 0x3e3ea589bda2b672U,
  0xbbbfab0abd49eb13U, 0x3e9187d43e304643U, 0xbd131933becd29d9U, 0x3dbb8675be9fcb8dU,
  0x3db6123a3e483028U, 0xbe1e94aebcdcad18U, 0x3db5dea7bde52ef9U, 0x3e006dcbbe37a56cU,
  0x3c4e9fa13e6839f5U, 0xbd8adf703de3854fU, 0xbdf80ccdbd95df29U, 0xbe23dc9bbd68fe9bU,
  0xbe6faafa3eacdc52U, 0x3da3f99a3ea4a308U, 0xbe1d59ecbe7c9aaaU, 0x3d81eaeabdb0c711U,
  0x3cb103023e9793ebU, 0xbca3cb50bdb56e18U, 0x3d4a61603cfcb343U, 0xbd81e6adbd14040cU,
  0x3d1e72ccbe4a1796U, 0x3df05c7dbe5cc86aU, 0x3dd2e3e0be14c164U, 0xbd86802bbe421cc0U,
  0xbd8f8a5d3de0414eU, 0xbdaab9c23e8a6541U, 0xbc08081a3dc00313U, 0xbd898233be6af621U,
  0xbe1cbaaa3e95c332U, 0xbc2d2c763d3e2e12U, 0x3e20c9f8bddf4c74U, 0xbe13e4b7bdbcfc0bU,
  0xbd6d66153e6c6678U, 0x3dc7add4be898cfeU, 0x3dfe525f3c547cb9U, 0xbe2f06763a3c8de9U,
  0x3df6f0443e44a78bU, 0xbe83daca3e49e00eU, 0x3dda9cbdbe402bceU, 0xbd2299a2bdc33c97U,
  0x3e0ebf82bd5ede7bU, 0x3ee1d0ec3e1960b6U, 0xbdfc42f1bdc0f927U, 0xbeaf2c39bcad9d66U,
  0x3e98c03b3dcc277dU, 0x3e5fd9f2be227aaeU, 0xbe92e8953dcbbbb7U, 0x3ccc69493e688d41U,
  0xbc49a9ad3e0baf1dU, 0x3b473f6e3de9a021U, 0xbe0a34f43de25960U, 0x3da30c12bdb13a51U,
  0xbe42f6c1be0d2fcaU, 0xbc92d5d4be3ab57dU, 0x3ddf19babe6e03c4U, 0xbda744c9bdc96234U,
  0x3d63e88b3caa4271U, 0x3cee9abcbd439a5fU, 0xbe0047b5be75e9c4U, 0xbe7487be3e3b8a5bU,
  0x3dd44e283df273eaU, 0xbc70c01a3d8c8486U, 0xbd702d30bb23ed94U, 0xbd90fb873e3f01c3U,
  0x3e640e5cbe9b90b0U, 0x3df1c7ac3e11d7e3U, 0x3df72cd5bce60b67U, 0x3d0c3421bd2ba6a0U,
  0xbbcd2987be377edaU, 0x3d7c0590bd640c2bU, 0x3dab10bebe4c0227U, 0xbdc966293e07956aU,
  0x3d93f0123db48b4dU, 0x3d80391ebea285f3U, 0x3dac408b3d8b0912U, 0x3e8ff7a93de000b8U,
  0x3d96f08fbd447318U, 0x3d884bd23e2db830U, 0xbd9670903da6713cU, 0x3d940593be0492e6U,
  0xbe09530f3e94f683U, 0xbc9e98673d3b635cU, 0x3e275c9fbdf6bdb7U, 0xbe85e6e8bdac32a5U,
  0x3de42c583ee85b10U, 0x3902cc463d9e5509U, 0x3ca5486fbd8aaff0U, 0x3e0c90763e1d1cffU,
  0x3d3f6fc53c707160U, 0x3ce59fe73ceaf875U, 0x3e8ec2bebe46624fU, 0xbe4a906a3e9be88dU,
  0x3d38d25cbe7d7c01U, 0xbe17c3fd3ea00d41U, 0xbe18508abdada9a4U, 0x3e0772c4be4787d6U,
  0x3d71c99ebcf68784U, 0x3ea40d703d6fcfb3U, 0x3d45f04f3e4573a0U, 0x3ee68e8cbca78fd8U,
  0x3c8338e1bc805665U, 0x3cedd2dabe025012U, 0xbdaa9e0a3df354e4U, 0x3e91b27f3d8cb247U,
  0x3e35e3a9bd05626cU, 0x3d94299fbe1b7e0aU, 0xbe23feb03e04da67U, 0xbe42f4c0be2c33ecU,
  0x3defe5a6bba9d9faU, 0x3ddafd58be2302feU, 0xbb4c632d3db31b53U, 0xbe23356b3cbff946U,
  0x3e03776abde2fc34U, 0x3e1c0b7b3e6bb105U, 0xbd97c7f8be606978U, 0xbdb27a213e6e6514U,
  0xbe2829953c9a17abU, 0x3e11a936be4595f4U, 0xbd4efd39be24b6e9U, 0x3eb42d9e3c81831aU,
  0xbd29c3b23e6261e9U, 0x3b5e4fffbe7ae26fU, 0xbda2fecdbe4b97a8U, 0xbdbc96bdbdd18b2bU,
  0x3cf6db813dc57a19U, 0xbea8dc7d3eac5a86U, 0xbbc77c5dbe08f11aU, 0xbc05fa7ebda5e3b9U,
  0xbddceb91be240177U, 0xbe5310513d0abc75U, 0x3c283ccdbe92dbebU, 0x3e30111c3e9b5d0bU,
  0xbd927e5cbdadf3a3U, 0x3e590ba53d415302U, 0xbe6d6d27bd89a78dU, 0x3dc4ad1fbe497c1fU,
  0x3da1e1cabe8924a8U, 0xbe2bffce3e35c9fcU, 0x3cc7e446bec0ebd3U, 0x3e51bd5d3e90c921U,
  0x3db3148e3cf30f21U, 0xbdb4ca8fbe128146U, 0xbd6837a8bd30caafU, 0x3d07047cbe5faf13U,
  0x3efdfb703e123550U, 0xbc83ff7ebda654bdU, 0xbd0c3863bdfc1dc6U, 0x3dc8c3b33d86d774U,
